/**
  ******************************************************************************
  * @file    network_ecblobs.h
  * @brief   NN Code autogenerated DO NOT MODIFY IT
  ******************************************************************************
  * @attention
  *
  * Copyright (c) 2024 STMicroelectronics.
  * All rights reserved.
  *
  * This software is licensed under terms that can be found in the LICENSE file
  * in the root directory of this software component.
  * If no LICENSE file comes with this software, it is provided AS-IS.
  *
  ******************************************************************************
  */


#ifdef __cplusplus
extern "C" {
#endif

#include "ll_aton_caches_interface.h"

#include <string.h>

#if !defined(ECBLOB_CONST_SECTION)
#define ECBLOB_CONST_SECTION /* Empty */
#endif
#if !defined(ECBLOB_RUNTIME_SECTION)
#define ECBLOB_RUNTIME_SECTION /* Empty */
#endif

ECBLOB_CONST_SECTION
// aligned to the cache line size (equal to 64 bytes)
__attribute__((aligned(64)))
static const uint64_t _ec_blob_network_1[11656] =
{
  0x00005b00ca057a7aUL, 0x0000005d0000003dUL, 0x5c00004200802241UL, 0x1500006008000000UL,
  0x000700005c027c00UL, 0x000040005c070043UL, 0x5c0c00430000ffe0UL, 0x1041204200000000UL,
  0x6000004200802261UL, 0x1500000008000000UL, 0x0007000060027c00UL, 0x0000400060070043UL,
  0x600c004300000020UL, 0x1041104100000000UL, 0x2c007c00008020c1UL, 0x2c02004300080104UL,
  0x0004b000342e0000UL, 0x000000002c0500c3UL, 0x000000000004b000UL, 0x0000002400000000UL,
  0x2c0c004200100000UL, 0x0000000700000006UL, 0x000000012c0d0043UL, 0x2c1100433432b03fUL,
  0x0000000000000000UL, 0x18007c0000802021UL, 0x180200430008010cUL, 0x0004b00034270000UL,
  0x00000000180500c3UL, 0x000000000004b000UL, 0x0000002400000000UL, 0x180c004200100000UL,
  0x0000000700000006UL, 0x00000001180d0043UL, 0x18110043342bb03fUL, 0x0000000000000000UL,
  0x0000002710037c00UL, 0x0000000d101e7c00UL, 0x0000002510207c00UL, 0x0000000110007c00UL,
  0x5c00200118002001UL, 0x2c00200160002001UL, 0x0000006418007fe4UL, 0x10007c0000000000UL,
  0x1000042400000002UL, 0x0000000000000064UL, 0x4000000010007c00UL, 0x0000006410007bc4UL,
  0x10037c0000000000UL, 0x101e7c0000000000UL, 0x10207c0000000000UL, 0x18007c0000000000UL,
  0x1800042400000002UL, 0x0000000000000064UL, 0x4000000018007c00UL, 0x0000006418007bc4UL,
  0x0080002100000000UL, 0x080000025c007c00UL, 0x000000645c000424UL, 0x5c007c0000000000UL,
  0x5c007bc448000000UL, 0x0000000000000064UL, 0x60007c0000800241UL, 0x6000042408000002UL,
  0x0000000000000064UL, 0x4800000060007c00UL, 0x0000006460007bc4UL, 0x0080026100000000UL,
  0x000000022c007c00UL, 0x000000642c000424UL, 0x2c007c0000000000UL, 0x2c007bc440000000UL,
  0x0000000000000064UL, 0x0000007d008000c1UL, 0x3c007c0000802141UL, 0x3c0200e300100034UL,
  0x0000224406030303UL, 0x014003c010634101UL, 0x013f000003bf0000UL, 0x3c0a7c0000000001UL,
  0x3c0d7c0000000000UL, 0x0080228100000000UL, 0x0800000064000042UL, 0x64020123156000fcUL,
  0x00000000000a8000UL, 0x000257ff00000005UL, 0x000000000004afffUL, 0x07d403fb00000000UL,
  0x640c004300000001UL, 0x2042204200000000UL, 0x00000001640b7c00UL, 0xf451541f65000303UL,
  0xf448602500008bc2UL, 0xf30c6a340000472aUL, 0xf29b60a50000900fUL, 0xf4b03e080000d6d1UL,
  0xf14914ae000008a1UL, 0xf0e8256900002a5dUL, 0x073f554e0000cce6UL, 0xf3e348710000b442UL,
  0xf2c453180000140eUL, 0xf1f84eab00008eceUL, 0xf22b2bdf000096d8UL, 0x008022a100001146UL,
  0x0800000068000042UL, 0x68027c0015000000UL, 0x6807004300070000UL, 0x0000002000004000UL,
  0x00000000680c0043UL, 0x0080208110411041UL, 0x0008010024007c00UL, 0x3427000024020043UL,
  0x240500c30004b000UL, 0x0004b00000000000UL, 0x0000000000000001UL, 0x0010000000000024UL,
  0x00000006240c0042UL, 0x240d004300000007UL, 0x342bb03f00000002UL, 0x0000000024110043UL,
  0x0080212100000000UL, 0x0008018438007c00UL, 0x7045f1a038020043UL, 0x380500c300000144UL,
  0x0000000000000000UL, 0x0000000000000000UL, 0x0010000000000024UL, 0x00000006380c0042UL,
  0x380d004300000007UL, 0x7045f32700000001UL, 0x0000000038110043UL, 0x008020c100000008UL,
  0x000801082c007c00UL, 0x342000002c020043UL, 0x2c0500c300025800UL, 0x0002580000000000UL,
  0x0000000000000000UL, 0x0010000000000024UL, 0x000000062c0c0042UL, 0x2c0d004300000007UL,
  0x3424b03f00000002UL, 0x000000002c110043UL, 0x10087c0000000000UL, 0x100c00430000002bUL,
  0x0000001300000009UL, 0x0000001510227c00UL, 0x0000002910247c00UL, 0x0000000110007c00UL,
  0x3c007c002c002001UL, 0x6400200100100035UL, 0x2400200168002001UL, 0x2c007fe438002001UL,
  0x0000000000000064UL, 0x0000000210007c00UL, 0x0000006410000424UL, 0x10007c0000000000UL,
  0x10007bc440000000UL, 0x0000000000000064UL, 0x0000000010087c00UL, 0x00000000100c0043UL,
  0x10227c0000000000UL, 0x10247c0000000000UL, 0x2c007c0000000000UL, 0x2c00042400000002UL,
  0x0000000000000064UL, 0x400000002c007c00UL, 0x000000642c007bc4UL, 0x008000c100000000UL,
  0x000000023c007c00UL, 0x000000643c000424UL, 0x3c007c0000000000UL, 0x3c007bc440000000UL,
  0x0000000000000064UL, 0x64007c0000800141UL, 0x6400042408000002UL, 0x0000000000000064UL,
  0x4800000064007c00UL, 0x0000006464007bc4UL, 0x0080028100000000UL, 0x0800000268007c00UL,
  0x0000006468000424UL, 0x68007c0000000000UL, 0x68007bc448000000UL, 0x0000000000000064UL,
  0x24007c00008002a1UL, 0x2400042400000002UL, 0x0000000000000064UL, 0x4000000024007c00UL,
  0x0000006424007bc4UL, 0x0080008100000000UL, 0x0000000238007c00UL, 0x0000006438000424UL,
  0x38007c0000000000UL, 0x38007bc440000000UL, 0x0000000000000064UL, 0x0000009d00800121UL,
  0x40007c0000802161UL, 0x400200e300100034UL, 0x0000115508060303UL, 0x00a003c010774003UL,
  0x009f000003bf0000UL, 0x400a7c0000070010UL, 0x400d7c0000000000UL, 0x0080218100000000UL,
  0x0010002044007c00UL, 0x08060303440200e3UL, 0x1063430000001155UL, 0x03bf000000a003c0UL,
  0x000f0810009f0000UL, 0x00000000440a7c00UL, 0x00000000440d7c00UL, 0x5c00004200802241UL,
  0x156000fc08000000UL, 0x000980005c020123UL, 0x0000000700000000UL, 0x00063fff00031fffUL,
  0x0000000000000000UL, 0x0000000107c403f9UL, 0x000000005c0c0043UL, 0x5c0b7c0020422042UL,
  0x5d00040300000001UL, 0x0000f922fdce322aUL, 0x00004d7dfe120fb9UL, 0x0000335ffe270a8eUL,
  0x00003626fbc82735UL, 0x00008acdfd22258eUL, 0x000043f9fd1b1c95UL, 0x0000a396fb753901UL,
  0x0000003bfd9007a3UL, 0x000083e2fc4a50b4UL, 0x0000dde5fbfb2f4aUL, 0x00002880f9ba2fe5UL,
  0x0000ecfafcf54a84UL, 0x0000bd2efb1f1e1dUL, 0x0000ef57fcbf4fddUL, 0x0000df5efba023c8UL,
  0x0000d227fefc243aUL, 0x6000004200802261UL, 0x1500000008000000UL, 0x0007000060027c00UL,
  0x0000400060070043UL, 0x600c004300000020UL, 0x1041104100000000UL, 0x20007c0000802061UL,
  0x2002004300080100UL, 0x0002580034200000UL, 0x00000000200500c3UL, 0x000000010004b000UL,
  0x0000002400000000UL, 0x200c004200100000UL, 0x0000000700000006UL, 0x00000002200d0043UL,
  0x201100433424b03fUL, 0x0000000000000000UL, 0x34007c0000802101UL, 0x3402004300080184UL,
  0x000006c070459330UL, 0x00000000340500c3UL, 0x0000000000000000UL, 0x0000002400000000UL,
  0x340c004200100000UL, 0x0000000700000006UL, 0x00000001340d0043UL, 0x3411004370459a2fUL,
  0x0000000800000000UL, 0x14007c0000802001UL, 0x1402004300080100UL, 0x0002580034225800UL,
  0x00000000140500c3UL, 0x000000010004b000UL, 0x0000002400000000UL, 0x140c004200100000UL,
  0x0000000700000006UL, 0x00000002140d0043UL, 0x141100433424b03fUL, 0x0000000000000000UL,
  0x28007c00008020a1UL, 0x2802012300080008UL, 0x00a000a0342e0000UL, 0x00000a0000100008UL,
  0x0000000200000008UL, 0x0000002400064000UL, 0x280c004200100000UL, 0x0000000700000006UL,
  0x00000002280d0043UL, 0x281100433434403fUL, 0x0000000000000000UL, 0x0000002710077c00UL,
  0x00000007100f0043UL, 0x1012006300000011UL, 0x0000001100000001UL, 0x101e7c0000000017UL,
  0x10207c0000000019UL, 0x10007c0000000025UL, 0x2800200100000001UL, 0x0010003540007c00UL,
  0x0010002144007c00UL, 0x600020015c002001UL, 0x2000200114002001UL, 0x28007fe434002001UL,
  0x0000000000000064UL, 0x0000000210007c00UL, 0x0000006410000424UL, 0x10007c0000000000UL,
  0x10007bc440000000UL, 0x0000000000000064UL, 0x0000000010077c00UL, 0x00000000100f0043UL,
  0x1012006300000000UL, 0x0000000000000000UL, 0x101e7c0000000000UL, 0x10207c0000000000UL,
  0x28007c0000000000UL, 0x2800042400000002UL, 0x0000000000000064UL, 0x4000000028007c00UL,
  0x0000006428007bc4UL, 0x008000a100000000UL, 0x0000000240007c00UL, 0x0000006440000424UL,
  0x40007c0000000000UL, 0x40007bc440000000UL, 0x0000000000000064UL, 0x44007c0000800161UL,
  0x4400042400000002UL, 0x0000000000000064UL, 0x4000000044007c00UL, 0x0000006444007bc4UL,
  0x0080018100000000UL, 0x080000025c007c00UL, 0x000000645c000424UL, 0x5c007c0000000000UL,
  0x5c007bc448000000UL, 0x0000000000000064UL, 0x60007c0000800241UL, 0x6000042408000002UL,
  0x0000000000000064UL, 0x4800000060007c00UL, 0x0000006460007bc4UL, 0x0080026100000000UL,
  0x0000000214007c00UL, 0x0000006414000424UL, 0x14007c0000000000UL, 0x14007bc440000000UL,
  0x0000000000000064UL, 0x20007c0000800001UL, 0x2000042400000002UL, 0x0000000000000064UL,
  0x4000000020007c00UL, 0x0000006420007bc4UL, 0x0080006100000000UL, 0x0000000234007c00UL,
  0x0000006434000424UL, 0x34007c0000000000UL, 0x34007bc440000000UL, 0x0000000000000064UL,
  0x000000bd00800101UL, 0x48007c00008021a1UL, 0x480200e320100034UL, 0x0000220004040303UL,
  0x00a0028010634303UL, 0x009f0000027f0000UL, 0x480a7c0000000001UL, 0x480d7c0001000400UL,
  0x0080228100000000UL, 0x0800000064000042UL, 0x64020123156000fcUL, 0x0000000000088000UL,
  0x000063ff00000003UL, 0x0000000000018fffUL, 0x07c403fd00000000UL, 0x640c004300000001UL,
  0x2042204200000000UL, 0x00000001640b7c00UL, 0xff050d3265000403UL, 0xff7939dc0000a16aUL,
  0xfef139f400001ddfUL, 0xff030f5400009fecUL, 0xff0515b60000c1bdUL, 0xffec1fd500001eb8UL,
  0xff00152900000dc8UL, 0xfef662de00003a31UL, 0xff021161000026dcUL, 0xff4f122100008bb7UL,
  0xff0f096f0000b620UL, 0x00070b1000001beeUL, 0xff1d0ae50000a4dfUL, 0xff0d107b0000d1f9UL,
  0x003e0a9a00006834UL, 0xfefb16bb00002b64UL, 0x008022a100007038UL, 0x0800000068000042UL,
  0x68027c0015000000UL, 0x6807004300070000UL, 0x0000002000004000UL, 0x00000000680c0043UL,
  0x0080202110411041UL, 0x0088020018007c00UL, 0x342e000018020123UL, 0x0010000200a000a0UL,
  0x0000000000000a00UL, 0x0000000400000001UL, 0x0010000000000024UL, 0x00000006180c0042UL,
  0x180d004300000007UL, 0x3434403f00000004UL, 0x0000000018110043UL, 0x0080210100000000UL,
  0x0008018434007c00UL, 0x7045de0034020043UL, 0x340500c300000240UL, 0x0000000000000000UL,
  0x0000000000000000UL, 0x0010000000000024UL, 0x00000006340c0042UL, 0x340d004300000007UL,
  0x7045e07f00000001UL, 0x0000000034110043UL, 0x008020e100000008UL, 0x0008000830007c00UL,
  0x342a200030020123UL, 0x0010000400500050UL, 0x0000000400000500UL, 0x0001900000000004UL,
  0x0010000000000024UL, 0x00000006300c0042UL, 0x300d004300000007UL, 0x342bb03f00000004UL,
  0x0000000030110043UL, 0x10097c0000000000UL, 0x101500430000002bUL, 0x0000001100000003UL,
  0x0000001b10227c00UL, 0x0000002910247c00UL, 0x0000000110007c00UL, 0x48007c0030002001UL,
  0x6400200120100035UL, 0x1800200168002001UL, 0x30007fe434002001UL, 0x0000000000000064UL,
  0x0000000210007c00UL, 0x0000006410000424UL, 0x10007c0000000000UL, 0x10007bc440000000UL,
  0x0000000000000064UL, 0x0000000010097c00UL, 0x0000000010150043UL, 0x10227c0000000000UL,
  0x10247c0000000000UL, 0x30007c0000000000UL, 0x3000042400000002UL, 0x0000000000000064UL,
  0x4000000030007c00UL, 0x0000006430007bc4UL, 0x008000e100000000UL, 0x0000000248007c00UL,
  0x0000006448000424UL, 0x48007c0000000000UL, 0x48007bc440000000UL, 0x0000000000000064UL,
  0x64007c00008001a1UL, 0x6400042408000002UL, 0x0000000000000064UL, 0x4800000064007c00UL,
  0x0000006464007bc4UL, 0x0080028100000000UL, 0x0800000268007c00UL, 0x0000006468000424UL,
  0x68007c0000000000UL, 0x68007bc448000000UL, 0x0000000000000064UL, 0x18007c00008002a1UL,
  0x1800042400000002UL, 0x0000000000000064UL, 0x4000000018007c00UL, 0x0000006418007bc4UL,
  0x0080002100000000UL, 0x0000000234007c00UL, 0x0000006434000424UL, 0x34007c0000000000UL,
  0x34007bc440000000UL, 0x0000000000000064UL, 0x000000dd00800101UL, 0x3c007c0000802141UL,
  0x3c0200e300100034UL, 0x0000110010100101UL, 0x0050050010634202UL, 0x004f000004ff0000UL,
  0x3c0a7c0000000001UL, 0x3c0d7c0000000000UL, 0x0080224100000000UL, 0x080000005c000042UL,
  0x5c020123156000fcUL, 0x0000000000090000UL, 0x00018fff0000000fUL, 0x0000000000031fffUL,
  0x078403f100000000UL, 0x5c0c004300000001UL, 0x2042204200000000UL, 0x000000015c0b7c00UL,
  0xfc051c425d000803UL, 0xff731c15000005adUL, 0x002030c30000a32fUL, 0xfd6218dc00000fdaUL,
  0xfbfe1a1a000091ffUL, 0xfdbd2b290000e36bUL, 0xfef42c6d0000be69UL, 0xffdd132a00002053UL,
  0xfc45274d000033c1UL, 0xff0c174400009c40UL, 0x00922e8e0000a91aUL, 0xfcce24a50000a381UL,
  0xff1f3f2d0000d1bbUL, 0xfc7c2d4000006ed9UL, 0x002115ea00004a98UL, 0xfe7613300000cc39UL,
  0xf92546290000ca2aUL, 0xff532439000087b9UL, 0xffec1d9000008447UL, 0xfc082a960000b863UL,
  0x01ff2a200000748aUL, 0xfde01f600000d5faUL, 0xff701995000031f1UL, 0xff2e23060000da08UL,
  0x00381d57000080a5UL, 0xfc9f20ad00005903UL, 0xfd741c1600004369UL, 0xfdd016ae000097eaUL,
  0xfd8b1a5300009f03UL, 0x007f23140000b11aUL, 0xf8ff3eec0000f6abUL, 0xfe621b4300003c55UL,
  0x008022610000df95UL, 0x0800000060000042UL, 0x60027c0015000000UL, 0x6007004300070000UL,
  0x0000002000004000UL, 0x00000000600c0043UL, 0x0080228110411041UL, 0x0800000064000042UL,
  0x64027c0015000000UL, 0x6407004300070000UL, 0x0000002000004000UL, 0x00000000640c0043UL,
  0x008020c110411041UL, 0x000801002c007c00UL, 0x342a20002c020043UL, 0x2c0500c300019000UL,
  0x0001900000000000UL, 0x0000000000000001UL, 0x0010000000000024UL, 0x000000062c0c0042UL,
  0x2c0d004300000007UL, 0x342bb03f00000002UL, 0x000000002c110043UL, 0x0080212100000000UL,
  0x0008018438007c00UL, 0x7045efa038020043UL, 0x380500c300000200UL, 0x0000000000000000UL,
  0x0000000000000000UL, 0x0010000000000024UL, 0x00000006380c0042UL, 0x380d004300000007UL,
  0x7045f1df00000001UL, 0x0000000038110043UL, 0x0080206100000008UL, 0x0008000820007c00UL,
  0x3427000020020123UL, 0x0020001000500050UL, 0x0000001000000a00UL, 0x0003200000000002UL,
  0x0010000000000024UL, 0x00000006200c0042UL, 0x200d004300000007UL, 0x342a203f00000002UL,
  0x0000000020110043UL, 0x0080200100000000UL, 0x0008000814007c00UL, 0x3431200014020123UL,
  0x0020001000500050UL, 0x0000001000000a00UL, 0x0003200000000002UL, 0x0010000000000024UL,
  0x00000006140c0042UL, 0x140d004300000007UL, 0x3434403f00000002UL, 0x0000000014110043UL,
  0x10027c0000000000UL, 0x10057c0000000029UL, 0x100c004300000027UL, 0x000000130000000dUL,
  0x00000015101e7c00UL, 0x0000002510207c00UL, 0x0000002510227c00UL, 0x0000000110007c00UL,
  0x2000200114002001UL, 0x001000353c007c00UL, 0x600020015c002001UL, 0x2c00200164002001UL,
  0x14007fe438002001UL, 0x0000000000000064UL, 0x0000006420007fe4UL, 0x10007c0000000000UL,
  0x1000042400000002UL, 0x0000000000000064UL, 0x4000000010007c00UL, 0x0000006410007bc4UL,
  0x10027c0000000000UL, 0x10057c0000000000UL, 0x100c004300000000UL, 0x0000000000000000UL,
  0x00000000101e7c00UL, 0x0000000010207c00UL, 0x0000000010227c00UL, 0x0000000214007c00UL,
  0x0000006414000424UL, 0x14007c0000000000UL, 0x14007bc440000000UL, 0x0000000000000064UL,
  0x20007c0000800001UL, 0x2000042400000002UL, 0x0000000000000064UL, 0x4000000020007c00UL,
  0x0000006420007bc4UL, 0x0080006100000000UL, 0x000000023c007c00UL, 0x000000643c000424UL,
  0x3c007c0000000000UL, 0x3c007bc440000000UL, 0x0000000000000064UL, 0x5c007c0000800141UL,
  0x5c00042408000002UL, 0x0000000000000064UL, 0x480000005c007c00UL, 0x000000645c007bc4UL,
  0x0080024100000000UL, 0x0800000260007c00UL, 0x0000006460000424UL, 0x60007c0000000000UL,
  0x60007bc448000000UL, 0x0000000000000064UL, 0x64007c0000800261UL, 0x6400042408000002UL,
  0x0000000000000064UL, 0x4800000064007c00UL, 0x0000006464007bc4UL, 0x0080028100000000UL,
  0x000000022c007c00UL, 0x000000642c000424UL, 0x2c007c0000000000UL, 0x2c007bc440000000UL,
  0x0000000000000064UL, 0x38007c00008000c1UL, 0x3800042400000002UL, 0x0000000000000064UL,
  0x4000000038007c00UL, 0x0000006438007bc4UL, 0x0080012100000000UL, 0x00802161000000fdUL,
  0x10d0003440007c00UL, 0x10200101400200e3UL, 0x10e3430300001100UL, 0x09ff000000500a00UL,
  0x00000001004f0000UL, 0x00000000400a7c00UL, 0x00000000400d7c00UL, 0x68000042008022a1UL,
  0x156000fc08000000UL, 0x0009800068020123UL, 0x0000000f00000000UL, 0x00018fff00018fffUL,
  0x0000000000000000UL, 0x0000000107c403f1UL, 0x00000000680c0043UL, 0x680b7c0020422042UL,
  0x6900040300000001UL, 0x00002d12fc821f1cUL, 0x00009072fc4353b6UL, 0x0000f89ffcb729f3UL,
  0x0000d5dafce66321UL, 0x00007103fcae4986UL, 0x000001effcc33427UL, 0x00005e2afd2f6389UL,
  0x000054b2fe084da6UL, 0x0000cda8fd0c36d6UL, 0x000023ddfdbf30baUL, 0x00000b99fdde51ffUL,
  0x0000e86efba921baUL, 0x000032e6fee35369UL, 0x0000cdc3fe093cabUL, 0x0000505cfd114629UL,
  0x0000a480fc052c72UL, 0x5c00004200802241UL, 0x1500000008000000UL, 0x000700005c027c00UL,
  0x000040005c070043UL, 0x5c0c004300000020UL, 0x1041104100000000UL, 0x44007c0000802181UL,
  0x440200e300100034UL, 0x0000110010100101UL, 0x0050050010634303UL, 0x004f000004ff0000UL,
  0x440a7c0000000001UL, 0x440d7c0000000000UL, 0x0080226100000000UL, 0x0800000060000042UL,
  0x60020123156000fcUL, 0x0000000000098000UL, 0x00018fff0000000fUL, 0x0000000000018fffUL,
  0x07c403f100000000UL, 0x600c004300000001UL, 0x2042204200000000UL, 0x00000001600b7c00UL,
  0xfe292bdd61000403UL, 0xfcc5277a00003932UL, 0xfd90212500008218UL, 0xfde32c290000fdfcUL,
  0xfc7f31ec0000c95bUL, 0xfc3939ff0000243bUL, 0xfbac28fd0000dafeUL, 0xfd64172b00007171UL,
  0xfd4c21b7000030beUL, 0xfc4c1f9400009a0bUL, 0xfe2d10c70000b8b3UL, 0xfbda1f6600008c5bUL,
  0xfdab233d000019c8UL, 0xfd4a65370000fd86UL, 0xfd70148e00003b60UL, 0xfd192f320000e8f4UL,
  0x0080228100006806UL, 0x0800000064000042UL, 0x64027c0015000000UL, 0x6407004300070000UL,
  0x0000002000004000UL, 0x00000000640c0043UL, 0x008021a110411041UL, 0x10d0003448007c00UL,
  0x10200101480200e3UL, 0x10e3420200001100UL, 0x09ff000000500a00UL, 0x00000001004f0000UL,
  0x00000000480a7c00UL, 0x00000000480d7c00UL, 0x30007c00008020e1UL, 0x3002004308880304UL,
  0x00010aab34270000UL, 0x00000000300500c3UL, 0x0000000100000000UL, 0x0000002400032000UL,
  0x300c004200100000UL, 0x0000000700000006UL, 0x00000001300d0043UL, 0x30110043342a203fUL,
  0x0000000000000000UL, 0x14007c0000802001UL, 0x1402004308880184UL, 0x000000ab7045ed90UL,
  0x00000000140500c3UL, 0x0000000000000000UL, 0x0000002400000000UL, 0x140c004200100000UL,
  0x0000000700000006UL, 0x00000001140d0043UL, 0x141100437045efd7UL, 0x0000000800000000UL,
  0x28007c00008020a1UL, 0x2802004300080184UL, 0x000001007045f2f0UL, 0x00000000280500c3UL,
  0x0000000000000000UL, 0x0000002400000000UL, 0x280c004200100000UL, 0x0000000700000006UL,
  0x00000001280d0043UL, 0x281100437045f42fUL, 0x0000000800000000UL, 0x2c007c00008020c1UL,
  0x2c02004308880304UL, 0x00010aab34312000UL, 0x000000002c0500c3UL, 0x0000000100000000UL,
  0x0000002400032000UL, 0x2c0c004200100000UL, 0x0000000700000006UL, 0x000000012c0d0043UL,
  0x2c1100433434403fUL, 0x0000000000000000UL, 0x20007c0000802061UL, 0x2002004308880184UL,
  0x000000ab7045eb80UL, 0x00000000200500c3UL, 0x0000000000000000UL, 0x0000002400000000UL,
  0x200c004200100000UL, 0x0000000700000006UL, 0x00000001200d0043UL, 0x201100437045edc7UL,
  0x0000000800000000UL, 0x1c007c0000802041UL, 0x1c0200430008010cUL, 0x00019000342a2000UL,
  0x000000001c0500c3UL, 0x0000000000019000UL, 0x0000002400000000UL, 0x1c0c004200100000UL,
  0x0000000700000006UL, 0x000000011c0d0043UL, 0x1c110043342bb03fUL, 0x0000000000000000UL,
  0x18007c0000802021UL, 0x1802012300080008UL, 0x00500004342bb000UL, 0x0000000464000004UL,
  0x0000005000000140UL, 0x0000002400019000UL, 0x180c004200100000UL, 0x0000000700000006UL,
  0x00000050180d0043UL, 0x18110043342d403fUL, 0x0000000000000000UL, 0x24007c0000802081UL,
  0x240200430088010cUL, 0x00019000342e0000UL, 0x00000000240500c3UL, 0x0000000000032000UL,
  0x0000002400000000UL, 0x240c004200100000UL, 0x0000000700000006UL, 0x00000001240d0043UL,
  0x241100433431203fUL, 0x0000000000000000UL, 0x0000002910030043UL, 0x10067c000000002bUL,
  0x100f00430000001bUL, 0x000000010000000fUL, 0xff24012510120043UL, 0x101500430000000bUL,
  0x000000070000000dUL, 0x0000002b101e7c00UL, 0x0000001910207c00UL, 0x0000002710227c00UL,
  0x0000001710247c00UL, 0x0000000110007c00UL, 0x1c00200118002001UL, 0x40007c0024002001UL,
  0x44007c0010d00035UL, 0x48007c0000100035UL, 0x5c00200110d00035UL, 0x6400200160002001UL,
  0x1400200168002001UL, 0x2800200120002001UL, 0x300020012c002001UL, 0x0000006418007fe4UL,
  0x1c007fe400000000UL, 0x0000000000000064UL, 0x0000006424007fe4UL, 0x10007c0000000000UL,
  0x1000042400000002UL, 0x0000000000000064UL, 0x4000000010007c00UL, 0x0000006410007bc4UL,
  0x1003004300000000UL, 0x0000000000000000UL, 0x0000000010067c00UL, 0x00000000100f0043UL,
  0x1012004300000000UL, 0x0000000000000000UL, 0x0000000010150043UL, 0x101e7c0000000000UL,
  0x10207c0000000000UL, 0x10227c0000000000UL, 0x10247c0000000000UL, 0x18007c0000000000UL,
  0x1800042400000002UL, 0x0000000000000064UL, 0x4000000018007c00UL, 0x0000006418007bc4UL,
  0x0080002100000000UL, 0x000000021c007c00UL, 0x000000641c000424UL, 0x1c007c0000000000UL,
  0x1c007bc440000000UL, 0x0000000000000064UL, 0x24007c0000800041UL, 0x2400042400000002UL,
  0x0000000000000064UL, 0x4000000024007c00UL, 0x0000006424007bc4UL, 0x0080008100000000UL,
  0x0000000240007c00UL, 0x0000006440000424UL, 0x40007c0000000000UL, 0x40007bc440000000UL,
  0x0000000000000064UL, 0x44007c0000800161UL, 0x4400042400000002UL, 0x0000000000000064UL,
  0x4000000044007c00UL, 0x0000006444007bc4UL, 0x0080018100000000UL, 0x0000000248007c00UL,
  0x0000006448000424UL, 0x48007c0000000000UL, 0x48007bc440000000UL, 0x0000000000000064UL,
  0x5c007c00008001a1UL, 0x5c00042408000002UL, 0x0000000000000064UL, 0x480000005c007c00UL,
  0x000000645c007bc4UL, 0x0080024100000000UL, 0x0800000260007c00UL, 0x0000006460000424UL,
  0x60007c0000000000UL, 0x60007bc448000000UL, 0x0000000000000064UL, 0x64007c0000800261UL,
  0x6400042408000002UL, 0x0000000000000064UL, 0x4800000064007c00UL, 0x0000006464007bc4UL,
  0x0080028100000000UL, 0x0800000268007c00UL, 0x0000006468000424UL, 0x68007c0000000000UL,
  0x68007bc448000000UL, 0x0000000000000064UL, 0x14007c00008002a1UL, 0x1400042400000002UL,
  0x0000000000000064UL, 0x4000000014007c00UL, 0x0000006414007bc4UL, 0x0080000100000000UL,
  0x0000000220007c00UL, 0x0000006420000424UL, 0x20007c0000000000UL, 0x20007bc440000000UL,
  0x0000000000000064UL, 0x28007c0000800061UL, 0x2800042400000002UL, 0x0000000000000064UL,
  0x4000000028007c00UL, 0x0000006428007bc4UL, 0x008000a100000000UL, 0x000000022c007c00UL,
  0x000000642c000424UL, 0x2c007c0000000000UL, 0x2c007bc440000000UL, 0x0000000000000064UL,
  0x30007c00008000c1UL, 0x3000042400000002UL, 0x0000000000000064UL, 0x4000000030007c00UL,
  0x0000006430007bc4UL, 0x008000e100000000UL, 0x008022410000011dUL, 0x080000005c000042UL,
  0x5c020123356000fcUL, 0x00000000000a0000UL, 0x00018fff0000000fUL, 0x0000000000018fffUL,
  0x07c403f100000000UL, 0x5c0c006300000001UL, 0x2042204200000000UL, 0x5c0b7c00ff80ffffUL,
  0x5d00040300000001UL, 0x00007fa9f7f620a6UL, 0x00001dc3f8482866UL, 0x0000bc53f7d03345UL,
  0x00008d18f9651d6aUL, 0x0000d9fef9cf4085UL, 0x00009142f7c72004UL, 0x0000935dfa8b447dUL,
  0x0000cf1dfaba2759UL, 0x0000eacff8b33302UL, 0x0000a1d0f8d74145UL, 0x000081ddf7bf1915UL,
  0x000033ddf96d53f6UL, 0x0000f726f9244e88UL, 0x00004f67f86c3b88UL, 0x00001f0afa3e2625UL,
  0x0000c1f4f81629eaUL, 0x3c007c0000802141UL, 0x3c0200e300100034UL, 0x0000115504040303UL,
  0x0050014010634202UL, 0x004f0000013f0000UL, 0x3c0a7c0000000001UL, 0x3c0d7c0000000000UL,
  0x0080226100000000UL, 0x0800000060000042UL, 0x60020123156000fcUL, 0x0000000000088000UL,
  0x000063ff00000003UL, 0x0000000000018fffUL, 0x07c403fd00000000UL, 0x600c004300000001UL,
  0x2042204200000000UL, 0x00000001600b7c00UL, 0xff02177e61000403UL, 0xff1f2a7a0000223cUL,
  0xfee1305700005c1eUL, 0xfe1911e7000068c4UL, 0xff0720e20000bfeaUL, 0xfefa301400006ae0UL,
  0xff0120830000c9deUL, 0xfef745a000009e80UL, 0xff182d6400006ec2UL, 0xff151dce0000c74bUL,
  0xffeb52dc000089c2UL, 0xfefd193b0000f457UL, 0xfeec253c000043daUL, 0xfeff226f000037e1UL,
  0xfea036410000bb21UL, 0xff0914a40000a1f8UL, 0x0080228100000cceUL, 0x0800000064000042UL,
  0x64027c0015000000UL, 0x6407004300070000UL, 0x0000002000004000UL, 0x00000000640c0043UL,
  0x0080210110411041UL, 0x0088010434007c00UL, 0x342e000034020043UL, 0x340500c300019000UL,
  0x0003200000000000UL, 0x0000000000000000UL, 0x0010000000000024UL, 0x00000006340c0042UL,
  0x340d004300000007UL, 0x3431203f00000001UL, 0x0000000034110043UL, 0x008020e100000000UL,
  0x0008010030007c00UL, 0x342bb00030020043UL, 0x300500c300006400UL, 0x0000000000000000UL,
  0x0000640000000001UL, 0x0010000000000024UL, 0x00000006300c0042UL, 0x300d004300000007UL,
  0x342d403f00000004UL, 0x0000000030110043UL, 0x0080200100000000UL, 0x0008018414007c00UL,
  0x7045e04014020043UL, 0x140500c300000240UL, 0x0000000000000000UL, 0x0000000000000000UL,
  0x0010000000000024UL, 0x00000006140c0042UL, 0x140d004300000007UL, 0x7045e2bf00000001UL,
  0x0000000014110043UL, 0x0080202100000008UL, 0x0008010c18007c00UL, 0x3432b00018020043UL,
  0x180500c300019000UL, 0x0001900000000000UL, 0x0000000000000000UL, 0x0010000000000024UL,
  0x00000006180c0042UL, 0x180d004300000007UL, 0x3434403f00000001UL, 0x0000000018110043UL,
  0x0080204100000000UL, 0x000800081c007c00UL, 0x342700001c020123UL, 0x0010000400500050UL,
  0x0000000400000500UL, 0x0001900000000004UL, 0x0010000000000024UL, 0x000000061c0c0042UL,
  0x1c0d004300000007UL, 0x3428903f00000004UL, 0x000000001c110043UL, 0x1003004300000000UL,
  0x0000002900000025UL, 0x0000000f100c0043UL, 0x101e7c0000000001UL, 0x10207c0000000011UL,
  0x10227c0000000015UL, 0x10007c0000000027UL, 0x1800200100000001UL, 0x3c007c001c002001UL,
  0x5c00200100100035UL, 0x6400200160002001UL, 0x3000200114002001UL, 0x18007fe434002001UL,
  0x0000000000000064UL, 0x000000641c007fe4UL, 0x10007c0000000000UL, 0x1000042400000002UL,
  0x0000000000000064UL, 0x4000000010007c00UL, 0x0000006410007bc4UL, 0x1003004300000000UL,
  0x0000000000000000UL, 0x00000000100c0043UL, 0x101e7c0000000000UL, 0x10207c0000000000UL,
  0x10227c0000000000UL, 0x18007c0000000000UL, 0x1800042400000002UL, 0x0000000000000064UL,
  0x4000000018007c00UL, 0x0000006418007bc4UL, 0x0080002100000000UL, 0x000000021c007c00UL,
  0x000000641c000424UL, 0x1c007c0000000000UL, 0x1c007bc440000000UL, 0x0000000000000064UL,
  0x3c007c0000800041UL, 0x3c00042400000002UL, 0x0000000000000064UL, 0x400000003c007c00UL,
  0x000000643c007bc4UL, 0x0080014100000000UL, 0x080000025c007c00UL, 0x000000645c000424UL,
  0x5c007c0000000000UL, 0x5c007bc448000000UL, 0x0000000000000064UL, 0x60007c0000800241UL,
  0x6000042408000002UL, 0x0000000000000064UL, 0x4800000060007c00UL, 0x0000006460007bc4UL,
  0x0080026100000000UL, 0x0800000264007c00UL, 0x0000006464000424UL, 0x64007c0000000000UL,
  0x64007bc448000000UL, 0x0000000000000064UL, 0x14007c0000800281UL, 0x1400042400000002UL,
  0x0000000000000064UL, 0x4000000014007c00UL, 0x0000006414007bc4UL, 0x0080000100000000UL,
  0x0000000230007c00UL, 0x0000006430000424UL, 0x30007c0000000000UL, 0x30007bc440000000UL,
  0x0000000000000064UL, 0x34007c00008000e1UL, 0x3400042400000002UL, 0x0000000000000064UL,
  0x4000000034007c00UL, 0x0000006434007bc4UL, 0x0080010100000000UL, 0x008021610000013dUL,
  0x0010003440007c00UL, 0x10100101400200e3UL, 0x1063430300001100UL, 0x04ff000000500500UL,
  0x00000001004f0000UL, 0x00000000400a7c00UL, 0x00000000400d7c00UL, 0x68000042008022a1UL,
  0x356000fc08000000UL, 0x000a000068020123UL, 0x0000000f00000000UL, 0x00018fff00018fffUL,
  0x0000000000000000UL, 0x0000000107c403f1UL, 0x00000000680c0063UL, 0xff80ffff20422042UL,
  0x00000001680b7c00UL, 0xf750767c69000403UL, 0xf7ba7f1f0000781bUL, 0xf80a59ed00009ac9UL,
  0xfa745fe40000e3b9UL, 0xf91c62a6000004f6UL, 0xf91242f900009495UL, 0xf77b3af500004edeUL,
  0xf8da2f550000582cUL, 0xf8793ee80000adc7UL, 0xf84b583000002c0aUL, 0xf9a827320000242cUL,
  0xfba954970000eda9UL, 0xfc5a491f0000503cUL, 0xf84c402d0000a04fUL, 0xf9e5443300005d00UL,
  0xf8a46b0800006c71UL, 0x008022410000fc8bUL, 0x080000005c000042UL, 0x5c027c0005000160UL,
  0x5c07004300071801UL, 0x0000400040004000UL, 0x000000005c0c0043UL, 0x008020a110411041UL,
  0x0008010428007c00UL, 0x3427000028020043UL, 0x280500c300019000UL, 0x0001900000000000UL,
  0x0000000000000001UL, 0x0010000000000024UL, 0x00000006280c0042UL, 0x280d004300000007UL,
  0x3428903f00000001UL, 0x0000000028110043UL, 0x0080212100000000UL, 0x0008018438007c00UL,
  0x7045f3f038020043UL, 0x380500c300000100UL, 0x0000000000000000UL, 0x0000000000000000UL,
  0x0010000000000024UL, 0x00000006380c0042UL, 0x380d004300000007UL, 0x7045f52f00000001UL,
  0x0000000038110043UL, 0x0080206100000008UL, 0x0008010420007c00UL, 0x342a200020020043UL,
  0x200500c300019000UL, 0x0001900000000000UL, 0x0000000000000000UL, 0x0010000000000024UL,
  0x00000006200c0042UL, 0x200d004300000007UL, 0x342bb03f00000001UL, 0x0000000020110043UL,
  0x0080208100000000UL, 0x0008010c24007c00UL, 0x3431200024020043UL, 0x240500c300019000UL,
  0x0001900000000000UL, 0x0000000000000000UL, 0x0010000000000024UL, 0x00000006240c0042UL,
  0x240d004300000007UL, 0x3432b03f00000001UL, 0x0000000024110043UL, 0x10067c0000000000UL,
  0x100f004300000025UL, 0x000000130000000bUL, 0x00000007101e0043UL, 0x10247c000000002bUL,
  0x10007c0000000017UL, 0x2400200100000001UL, 0x0010003540007c00UL, 0x680020015c002001UL,
  0x2800200120002001UL, 0x24007fe438002001UL, 0x0000000000000064UL, 0x0000000210007c00UL,
  0x0000006410000424UL, 0x10007c0000000000UL, 0x10007bc440000000UL, 0x0000000000000064UL,
  0x0000000010067c00UL, 0x00000000100f0043UL, 0x101e004300000000UL, 0x0000000000000000UL,
  0x0000000010247c00UL, 0x0000000224007c00UL, 0x0000006424000424UL, 0x24007c0000000000UL,
  0x24007bc440000000UL, 0x0000000000000064UL, 0x40007c0000800081UL, 0x4000042400000002UL,
  0x0000000000000064UL, 0x4000000040007c00UL, 0x0000006440007bc4UL, 0x0080016100000000UL,
  0x080000025c007c00UL, 0x000000645c000424UL, 0x5c007c0000000000UL, 0x5c007bc448000000UL,
  0x0000000000000064UL, 0x68007c0000800241UL, 0x6800042408000002UL, 0x0000000000000064UL,
  0x4800000068007c00UL, 0x0000006468007bc4UL, 0x008002a100000000UL, 0x0000000220007c00UL,
  0x0000006420000424UL, 0x20007c0000000000UL, 0x20007bc440000000UL, 0x0000000000000064UL,
  0x28007c0000800061UL, 0x2800042400000002UL, 0x0000000000000064UL, 0x4000000028007c00UL,
  0x0000006428007bc4UL, 0x008000a100000000UL, 0x0000000238007c00UL, 0x0000006438000424UL,
  0x38007c0000000000UL, 0x38007bc440000000UL, 0x0000000000000064UL, 0x0000015d00800121UL,
  0x008022610000017dUL, 0x0800000060000042UL, 0x60027c0015000000UL, 0x6007004300070000UL,
  0x0000002000004000UL, 0x00000000600c0043UL, 0x0080200110411041UL, 0x0008010014007c00UL,
  0x3431200014020043UL, 0x140500c300019000UL, 0x0001900000000000UL, 0x0000000000000000UL,
  0x0010000000000024UL, 0x00000006140c0042UL, 0x140d004300000007UL, 0x3434403f00000002UL,
  0x0000000014110043UL, 0x008020a100000000UL, 0x0008000828007c00UL, 0x342e000028020123UL,
  0x0020001000500050UL, 0x0000001000000a00UL, 0x0003200000000002UL, 0x0010000000000024UL,
  0x00000006280c0042UL, 0x280d004300000007UL, 0x3431203f00000002UL, 0x0000000028110043UL,
  0x10077c0000000000UL, 0x10207c0000000027UL, 0x10007c0000000001UL, 0x2800200100000001UL,
  0x1400200160002001UL, 0x0000006428007fe4UL, 0x10007c0000000000UL, 0x1000042400000002UL,
  0x0000000000000064UL, 0x4000000010007c00UL, 0x0000006410007bc4UL, 0x10077c0000000000UL,
  0x10207c0000000000UL, 0x28007c0000000000UL, 0x2800042400000002UL, 0x0000000000000064UL,
  0x4000000028007c00UL, 0x0000006428007bc4UL, 0x008000a100000000UL, 0x0800000260007c00UL,
  0x0000006460000424UL, 0x60007c0000000000UL, 0x60007bc448000000UL, 0x0000000000000064UL,
  0x14007c0000800261UL, 0x1400042400000002UL, 0x0000000000000064UL, 0x4000000014007c00UL,
  0x0000006414007bc4UL, 0x0080000100000000UL, 0x008021810000019dUL, 0x10d0003444007c00UL,
  0x10200101440200e3UL, 0x10e3430300001100UL, 0x09ff000000500a00UL, 0x00000001004f0000UL,
  0x00000000440a7c00UL, 0x00000000440d7c00UL, 0x6400004200802281UL, 0x156000fc08000000UL,
  0x0009000064020123UL, 0x0000000f00000000UL, 0x00031fff00018fffUL, 0x0000000000000000UL,
  0x00000001078403f1UL, 0x00000000640c0043UL, 0x640b7c0020422042UL, 0x6500080300000001UL,
  0x00008de3ff0128feUL, 0x0000ec7ffea84944UL, 0x0000b970fd9049aeUL, 0x0000d4affde91468UL,
  0x0000dfdefe7b4573UL, 0x000022b3fdbf17c0UL, 0x0000045cff08135bUL, 0x0000ecd8fe741fc0UL,
  0x00008344fdc21604UL, 0x00001b1efea90b31UL, 0x0000ee36fe521833UL, 0x00004d38ff0728c7UL,
  0x0000e132fe151da3UL, 0x0000c068feb00d82UL, 0x00007721fe881031UL, 0x0000f244fe711940UL,
  0x00007ce9fed01903UL, 0x0000116dfe323263UL, 0x000008f7fdfc1a89UL, 0x00000917fdfa1973UL,
  0x0000aa4bfd492a7fUL, 0x000014c7fd9a2cf0UL, 0x0000f9a4febb0a5eUL, 0x0000f4f7fd771988UL,
  0x00003063fded22d5UL, 0x000033e5fe45137cUL, 0x00006404ffd249f7UL, 0x0000672dfe7c19c6UL,
  0x00008ca4febd1262UL, 0x00003be1fe054030UL, 0x0000655ffe441449UL, 0x000093c5feee0e65UL,
  0x5c00004200802241UL, 0x1500000008000000UL, 0x000700005c027c00UL, 0x000040005c070043UL,
  0x5c0c004300000020UL, 0x1041104100000000UL, 0x38007c0000802121UL, 0x3802004308880300UL,
  0x00010aab342e0000UL, 0x00000000380500c3UL, 0x0000000200000000UL, 0x0000002400032000UL,
  0x380c004200100000UL, 0x0000000700000006UL, 0x00000002380d0043UL, 0x381100433431203fUL,
  0x0000000000000000UL, 0x1c007c0000802041UL, 0x1c02004308880184UL, 0x000001567045b970UL,
  0x000000001c0500c3UL, 0x0000000000000000UL, 0x0000002400000000UL, 0x1c0c004200100000UL,
  0x0000000700000006UL, 0x000000011c0d0043UL, 0x1c1100437045bdb7UL, 0x0000000800000000UL,
  0x24007c0000802081UL, 0x2402012300080008UL, 0x0050005034312000UL, 0x00000a0000200010UL,
  0x0000000200000010UL, 0x0000002400032000UL, 0x240c004200100000UL, 0x0000000700000006UL,
  0x00000002240d0043UL, 0x241100433434403fUL, 0x0000000000000000UL, 0x0000002510067c00UL,
  0x0000001310120043UL, 0x101e7c0000000005UL, 0x10227c0000000029UL, 0x10007c0000000019UL,
  0x2400200100000001UL, 0x10d0003544007c00UL, 0x640020015c002001UL, 0x380020011c002001UL,
  0x0000006424007fe4UL, 0x10007c0000000000UL, 0x1000042400000002UL, 0x0000000000000064UL,
  0x4000000010007c00UL, 0x0000006410007bc4UL, 0x10067c0000000000UL, 0x1012004300000000UL,
  0x0000000000000000UL, 0x00000000101e7c00UL, 0x0000000010227c00UL, 0x0000000224007c00UL,
  0x0000006424000424UL, 0x24007c0000000000UL, 0x24007bc440000000UL, 0x0000000000000064UL,
  0x44007c0000800081UL, 0x4400042400000002UL, 0x0000000000000064UL, 0x4000000044007c00UL,
  0x0000006444007bc4UL, 0x0080018100000000UL, 0x080000025c007c00UL, 0x000000645c000424UL,
  0x5c007c0000000000UL, 0x5c007bc448000000UL, 0x0000000000000064UL, 0x64007c0000800241UL,
  0x6400042408000002UL, 0x0000000000000064UL, 0x4800000064007c00UL, 0x0000006464007bc4UL,
  0x0080028100000000UL, 0x000000021c007c00UL, 0x000000641c000424UL, 0x1c007c0000000000UL,
  0x1c007bc440000000UL, 0x0000000000000064UL, 0x38007c0000800041UL, 0x3800042400000002UL,
  0x0000000000000064UL, 0x4000000038007c00UL, 0x0000006438007bc4UL, 0x0080012100000000UL,
  0x008021a1000001bdUL, 0x2010003448007c00UL, 0x04040303480200e3UL, 0x1063430300002200UL,
  0x013f000000500140UL, 0x00000001004f0000UL, 0x01000400480a7c00UL, 0x00000000480d7c00UL,
  0x68000042008022a1UL, 0x156000fc08000000UL, 0x0009000068020123UL, 0x0000000300000000UL,
  0x0000c7ff000018ffUL, 0x0000000000000000UL, 0x00000001078403fdUL, 0x00000000680c0043UL,
  0x680b7c0020422042UL, 0x6900080300000001UL, 0x000003fdfdd61a3bUL, 0x00000893fe2919ecUL,
  0x00008b96fe0c0f12UL, 0x000057c8fde22cedUL, 0x00003ae8fe061241UL, 0x0000bf27fd8e2e82UL,
  0x00009ebb01562d0aUL, 0x0000371dfe121cb2UL, 0x00003f7b00d62476UL, 0x0000a71bfdb24773UL,
  0x0000c015ff132050UL, 0x00005667fe07302aUL, 0x00001803fe012a44UL, 0x0000bf8bfd27348dUL,
  0x0000f158fde34a87UL, 0x0000be55fdf03413UL, 0x00008ab2013e230bUL, 0x0000f358009016bdUL,
  0x00003538fe0419cdUL, 0x000096fcfe032c8fUL, 0x00007ea0fe02196bUL, 0x0000d68bfe251b62UL,
  0x0000b0c7fdfe4a7eUL, 0x0000a4adfe311e0eUL, 0x0000a3f7fdee189bUL, 0x000016bbfe16313aUL,
  0x00001928fe7a0dadUL, 0x00000ce6fdf72d7bUL, 0x0000c349fdc15ad9UL, 0x000078e0ffc91075UL,
  0x0000b426fddb2e67UL, 0x0000f5c6fdee3f91UL, 0x6000004200802261UL, 0x1500000008000000UL,
  0x0007000060027c00UL, 0x0000400060070043UL, 0x600c004300000020UL, 0x1041104100000000UL,
  0x30007c00008020e1UL, 0x3002012300880200UL, 0x0050005034312000UL, 0x00000a0000200002UL,
  0x0000000100000000UL, 0x0000002400000004UL, 0x300c004200100000UL, 0x0000000700000006UL,
  0x00000008300d0043UL, 0x301100433434403fUL, 0x0000000000000000UL, 0x18007c0000802021UL,
  0x1802004300080184UL, 0x00000480704599f0UL, 0x00000000180500c3UL, 0x0000000000000000UL,
  0x0000002400000000UL, 0x180c004200100000UL, 0x0000000700000006UL, 0x00000001180d0043UL,
  0x1811004370459eafUL, 0x0000000800000000UL, 0x1c007c0000802041UL, 0x1c02012300080008UL,
  0x00280028342e0000UL, 0x0000050000200004UL, 0x0000000800000004UL, 0x000000240000c800UL,
  0x1c0c004200100000UL, 0x0000000700000006UL, 0x000000081c0d0043UL, 0x1c110043342ec83fUL,
  0x0000000000000000UL, 0x0000002710047c00UL, 0x0000000f10150043UL, 0x10207c0000000003UL,
  0x10247c000000002bUL, 0x10007c000000001bUL, 0x1c00200100000001UL, 0x2010003548007c00UL,
  0x6800200160002001UL, 0x3000200118002001UL, 0x000000641c007fe4UL, 0x10007c0000000000UL,
  0x1000042400000002UL, 0x0000000000000064UL, 0x4000000010007c00UL, 0x0000006410007bc4UL,
  0x10047c0000000000UL, 0x1015004300000000UL, 0x0000000000000000UL, 0x0000000010207c00UL,
  0x0000000010247c00UL, 0x000000021c007c00UL, 0x000000641c000424UL, 0x1c007c0000000000UL,
  0x1c007bc440000000UL, 0x0000000000000064UL, 0x48007c0000800041UL, 0x4800042400000002UL,
  0x0000000000000064UL, 0x4000000048007c00UL, 0x0000006448007bc4UL, 0x008001a100000000UL,
  0x0800000260007c00UL, 0x0000006460000424UL, 0x60007c0000000000UL, 0x60007bc448000000UL,
  0x0000000000000064UL, 0x68007c0000800261UL, 0x6800042408000002UL, 0x0000000000000064UL,
  0x4800000068007c00UL, 0x0000006468007bc4UL, 0x008002a100000000UL, 0x0000000218007c00UL,
  0x0000006418000424UL, 0x18007c0000000000UL, 0x18007bc440000000UL, 0x0000000000000064UL,
  0x30007c0000800021UL, 0x3000042400000002UL, 0x0000000000000064UL, 0x4000000030007c00UL,
  0x0000006430007bc4UL, 0x008000e100000000UL, 0x00802141000001ddUL, 0x10d000343c007c00UL,
  0x102001013c0200e3UL, 0x10e3430300001100UL, 0x04ff000000280500UL, 0x0000000100270000UL,
  0x000000003c0a7c00UL, 0x000000003c0d7c00UL, 0x5c00004200802241UL, 0x156000fc08000000UL,
  0x000900005c020123UL, 0x0000000f00000000UL, 0x00018fff000063ffUL, 0x0000000000000000UL,
  0x00000001070403f1UL, 0x000000005c0c0043UL, 0x5c0b7c0020422042UL, 0x5d00100300000001UL,
  0x0000ccc2feb82c89UL, 0x00005cfafe9c4c03UL, 0x0000472200a82e29UL, 0x00000dc7fda128a1UL,
  0x00007e270022307cUL, 0x0000694dfe1837ccUL, 0x0000f560fc932e22UL, 0x0000475200782dacUL,
  0x00000b8cfca4314bUL, 0x00005794ff0a2d69UL, 0x000008d8fb423523UL, 0x0000240eff9e501dUL,
  0x00002625019535e6UL, 0x00003654fe0134d2UL, 0x0000e3c4fed64324UL, 0x0000f2c1ff211b47UL,
  0x0000dde1ff353e36UL, 0x0000c7a4fdcc24aaUL, 0x0000710efddd3c49UL, 0x0000dfb6fd51493aUL,
  0x000007f4fe031d25UL, 0x00004fabfb8d4a4dUL, 0x0000e27b008e2fa5UL, 0x0000c768f9ca6b43UL,
  0x0000adcdfd943192UL, 0x00004c1afd8643f8UL, 0x00007593fcd12d61UL, 0x0000c069fcaa30f3UL,
  0x00007d75ff433a12UL, 0x000032a5fd762c75UL, 0x0000a540fcb22466UL, 0x0000743dfeeb3b88UL,
  0x00001e54fe0f2401UL, 0x0000d5f8fdf0352eUL, 0x0000f16ffe4d2f25UL, 0x00003a5bfbc8359fUL,
  0x000070b1fe8b32d3UL, 0x00003eadffd1353cUL, 0x0000fcdcff5f2e50UL, 0x0000d338fd312a0cUL,
  0x00004546fced2c3aUL, 0x000027c7fe23457fUL, 0x0000127fffb426e9UL, 0x000062d3fc992c96UL,
  0x0000cdcffeef41c3UL, 0x00006b19febf3da9UL, 0x00004c40fffe2c35UL, 0x00003599fda63277UL,
  0x00005b28fd4d3053UL, 0x000008ddfc27672eUL, 0x00002847002d2a43UL, 0x00002c94fd8c41c8UL,
  0x0000aade011d52b5UL, 0x0000d4b001403c9eUL, 0x0000792200492737UL, 0x000086ce001a2a56UL,
  0x0000c7bbfdb62da2UL, 0x0000812dfebb3a7eUL, 0x0000f0bbfcef2d83UL, 0x0000a466fcfe2dfcUL,
  0x00003018fa962f14UL, 0x0000e26ffbb84bb7UL, 0x000046a3fe5b3c34UL, 0x00007e39fe6735daUL,
  0x6400004200802281UL, 0x1500000008000000UL, 0x0007000064027c00UL, 0x0000400064070043UL,
  0x640c004300000020UL, 0x1041104100000000UL, 0x6000004200802261UL, 0x1500000008000000UL,
  0x0007000060027c00UL, 0x0000400060070043UL, 0x600c004300000020UL, 0x1041104100000000UL,
  0x2c007c00008020c1UL, 0x2c02004308880300UL, 0x000042ab342e0000UL, 0x000000002c0500c3UL,
  0x0000000400000000UL, 0x000000240000c800UL, 0x2c0c004200100000UL, 0x0000000700000006UL,
  0x000000042c0d0043UL, 0x2c110043342ec83fUL, 0x0000000000000000UL, 0x18007c0000802021UL,
  0x1802004308880184UL, 0x000002ac70457b20UL, 0x00000000180500c3UL, 0x0000000000000000UL,
  0x0000002400000000UL, 0x180c004200100000UL, 0x0000000700000006UL, 0x00000001180d0043UL,
  0x1811004370458367UL, 0x0000000800000000UL, 0x1c007c0000802041UL, 0x1c02004300080108UL,
  0x0000640034312000UL, 0x000000001c0500c3UL, 0x0000000000006400UL, 0x0000002400000000UL,
  0x1c0c004200100000UL, 0x0000000700000006UL, 0x000000041c0d0043UL, 0x1c1100433432b03fUL,
  0x0000000000000000UL, 0x14007c0000802001UL, 0x1402004300080108UL, 0x00006400342f9000UL,
  0x00000000140500c3UL, 0x0000000000006400UL, 0x0000002400000000UL, 0x140c004200100000UL,
  0x0000000700000006UL, 0x00000004140d0043UL, 0x141100433431203fUL, 0x0000000000000000UL,
  0x0000002710027c00UL, 0x0000002910047c00UL, 0x0000000d100c0043UL, 0x101e7c0000000003UL,
  0x10207c0000000015UL, 0x10227c0000000025UL, 0x10007c0000000025UL, 0x1400200100000001UL,
  0x3c007c001c002001UL, 0x5c00200110d00035UL, 0x6400200160002001UL, 0x2c00200118002001UL,
  0x0000006414007fe4UL, 0x1c007fe400000000UL, 0x0000000000000064UL, 0x0000000210007c00UL,
  0x0000006410000424UL, 0x10007c0000000000UL, 0x10007bc440000000UL, 0x0000000000000064UL,
  0x0000000010027c00UL, 0x0000000010047c00UL, 0x00000000100c0043UL, 0x101e7c0000000000UL,
  0x10207c0000000000UL, 0x10227c0000000000UL, 0x14007c0000000000UL, 0x1400042400000002UL,
  0x0000000000000064UL, 0x4000000014007c00UL, 0x0000006414007bc4UL, 0x0080000100000000UL,
  0x000000021c007c00UL, 0x000000641c000424UL, 0x1c007c0000000000UL, 0x1c007bc440000000UL,
  0x0000000000000064UL, 0x3c007c0000800041UL, 0x3c00042400000002UL, 0x0000000000000064UL,
  0x400000003c007c00UL, 0x000000643c007bc4UL, 0x0080014100000000UL, 0x080000025c007c00UL,
  0x000000645c000424UL, 0x5c007c0000000000UL, 0x5c007bc448000000UL, 0x0000000000000064UL,
  0x60007c0000800241UL, 0x6000042408000002UL, 0x0000000000000064UL, 0x4800000060007c00UL,
  0x0000006460007bc4UL, 0x0080026100000000UL, 0x0800000264007c00UL, 0x0000006464000424UL,
  0x64007c0000000000UL, 0x64007bc448000000UL, 0x0000000000000064UL, 0x18007c0000800281UL,
  0x1800042400000002UL, 0x0000000000000064UL, 0x4000000018007c00UL, 0x0000006418007bc4UL,
  0x0080002100000000UL, 0x000000022c007c00UL, 0x000000642c000424UL, 0x2c007c0000000000UL,
  0x2c007bc440000000UL, 0x0000000000000064UL, 0x000001fd008000c1UL, 0x40007c0000802161UL,
  0x400200e300100034UL, 0x0000110010100101UL, 0x0028028010774004UL, 0x00270000027f0000UL,
  0x400a7c00000f0040UL, 0x400d7c0000000000UL, 0x0080218100000000UL, 0x0010002044007c00UL,
  0x10100101440200e3UL, 0x1077400000001100UL, 0x027f000000280280UL, 0x001f104000270000UL,
  0x00000000440a7c00UL, 0x00000000440d7c00UL, 0x48007c00008021a1UL, 0x480200e300100020UL,
  0x0000110010100101UL, 0x0028028010774000UL, 0x00270000027f0000UL, 0x480a7c00002f2040UL,
  0x480d7c0000000000UL, 0x0080214100000000UL, 0x001000203c007c00UL, 0x101001013c0200e3UL,
  0x1063440000001100UL, 0x027f000000280280UL, 0x003f304000270000UL, 0x000000003c0a7c00UL,
  0x000000003c0d7c00UL, 0x2c007c00008020c1UL, 0x2c02004300080100UL, 0x0000640034312000UL,
  0x000000002c0500c3UL, 0x0000000100019000UL, 0x0000002400000000UL, 0x2c0c004200100000UL,
  0x0000000700000006UL, 0x000000022c0d0043UL, 0x2c1100433432b03fUL, 0x0000000000000000UL,
  0x18007c0000802021UL, 0x1802004300080184UL, 0x0000080070458b30UL, 0x00000000180500c3UL,
  0x0000000000000000UL, 0x0000002400000000UL, 0x180c004200100000UL, 0x0000000700000006UL,
  0x00000001180d0043UL, 0x181100437045936fUL, 0x0000000800000000UL, 0x30007c00008020e1UL,
  0x3002004300080100UL, 0x0000640034318400UL, 0x00000000300500c3UL, 0x0000000100019000UL,
  0x0000002400000000UL, 0x300c004200100000UL, 0x0000000700000006UL, 0x00000002300d0043UL,
  0x301100433432b03fUL, 0x0000000000000000UL, 0x28007c00008020a1UL, 0x2802004300080100UL,
  0x000064003431e800UL, 0x00000000280500c3UL, 0x0000000100019000UL, 0x0000002400000000UL,
  0x280c004200100000UL, 0x0000000700000006UL, 0x00000002280d0043UL, 0x281100433432b03fUL,
  0x0000000000000000UL, 0x14007c0000802001UL, 0x1402004300080100UL, 0x0000640034324c00UL,
  0x00000000140500c3UL, 0x0000000100019000UL, 0x0000002400000000UL, 0x140c004200100000UL,
  0x0000000700000006UL, 0x00000002140d0043UL, 0x141100433432b03fUL, 0x0000000000000000UL,
  0x1c007c0000802041UL, 0x1c02004300880108UL, 0x00006400342e0000UL, 0x000000001c0500c3UL,
  0x000000000000c800UL, 0x0000002400000000UL, 0x1c0c004200100000UL, 0x0000000700000006UL,
  0x000000021c0d0043UL, 0x1c110043342f903fUL, 0x0000000000000000UL, 0x0000001510047c00UL,
  0x00000001100c00a3UL, 0x0000001b00000003UL, 0x000000030000000dUL, 0x0000000f101200c3UL,
  0x0000001700000003UL, 0x000000030000000bUL, 0x10007c0000000019UL, 0x1c00200100000001UL,
  0x001000213c007c00UL, 0x0010003540007c00UL, 0x0010002144007c00UL, 0x0010002148007c00UL,
  0x1800200114002001UL, 0x2c00200128002001UL, 0x1c007fe430002001UL, 0x0000000000000064UL,
  0x0000000210007c00UL, 0x0000006410000424UL, 0x10007c0000000000UL, 0x10007bc440000000UL,
  0x0000000000000064UL, 0x0000000010047c00UL, 0x00000000100c00a3UL, 0x0000000000000000UL,
  0x0000000000000000UL, 0x00000000101200c3UL, 0x0000000000000000UL, 0x0000000000000000UL,
  0x1c007c0000000000UL, 0x1c00042400000002UL, 0x0000000000000064UL, 0x400000001c007c00UL,
  0x000000641c007bc4UL, 0x0080004100000000UL, 0x000000023c007c00UL, 0x000000643c000424UL,
  0x3c007c0000000000UL, 0x3c007bc440000000UL, 0x0000000000000064UL, 0x40007c0000800141UL,
  0x4000042400000002UL, 0x0000000000000064UL, 0x4000000040007c00UL, 0x0000006440007bc4UL,
  0x0080016100000000UL, 0x0000000244007c00UL, 0x0000006444000424UL, 0x44007c0000000000UL,
  0x44007bc440000000UL, 0x0000000000000064UL, 0x48007c0000800181UL, 0x4800042400000002UL,
  0x0000000000000064UL, 0x4000000048007c00UL, 0x0000006448007bc4UL, 0x008001a100000000UL,
  0x0000000214007c00UL, 0x0000006414000424UL, 0x14007c0000000000UL, 0x14007bc440000000UL,
  0x0000000000000064UL, 0x18007c0000800001UL, 0x1800042400000002UL, 0x0000000000000064UL,
  0x4000000018007c00UL, 0x0000006418007bc4UL, 0x0080002100000000UL, 0x0000000228007c00UL,
  0x0000006428000424UL, 0x28007c0000000000UL, 0x28007bc440000000UL, 0x0000000000000064UL,
  0x2c007c00008000a1UL, 0x2c00042400000002UL, 0x0000000000000064UL, 0x400000002c007c00UL,
  0x000000642c007bc4UL, 0x008000c100000000UL, 0x0000000230007c00UL, 0x0000006430000424UL,
  0x30007c0000000000UL, 0x30007bc440000000UL, 0x0000000000000064UL, 0x0000021d008000e1UL,
  0x3c007c0000802141UL, 0x3c0200e300100034UL, 0x0000110010100101UL, 0x0028028010774004UL,
  0x00270000027f0000UL, 0x3c0a7c00000f0040UL, 0x3c0d7c0000000000UL, 0x0080216100000000UL,
  0x0010002040007c00UL, 0x10100101400200e3UL, 0x1077400000001100UL, 0x027f000000280280UL,
  0x001f104000270000UL, 0x00000000400a7c00UL, 0x00000000400d7c00UL, 0x44007c0000802181UL,
  0x440200e300100020UL, 0x0000110010100101UL, 0x0028028010774000UL, 0x00270000027f0000UL,
  0x440a7c00002f2040UL, 0x440d7c0000000000UL, 0x008021a100000000UL, 0x0010002048007c00UL,
  0x10100101480200e3UL, 0x1063440000001100UL, 0x027f000000280280UL, 0x003f304000270000UL,
  0x00000000480a7c00UL, 0x00000000480d7c00UL, 0x68000042008022a1UL, 0x356000fc08000000UL,
  0x0009800068020123UL, 0x0000000f00000000UL, 0x0000c7ff000063ffUL, 0x0000000000000000UL,
  0x00000001078403f1UL, 0x00000000680c0063UL, 0xff80ffdb20422042UL, 0x00000001680b7c00UL,
  0xfe5e30dd69000803UL, 0xfafd439500001672UL, 0xfc171f6100009967UL, 0xfc902ece0000ae1cUL,
  0xfc4425aa00004b9cUL, 0xfaaf3ed80000eb8bUL, 0xfc03264b0000da2bUL, 0xfbdc21f100001a94UL,
  0xfbf931ab00004b28UL, 0xfd092a260000519bUL, 0xfccb3aa700003ca0UL, 0xfbed259000006a62UL,
  0xfb7b2bbc00007c50UL, 0xfd602c3200007e41UL, 0xfdb721a4000028c4UL, 0xfb9526c200004ea2UL,
  0xfce31f8a00007f1eUL, 0xfc3a38cf0000b323UL, 0xfc3e23930000a00fUL, 0xfbfb255a000090fdUL,
  0xfd095a4600002864UL, 0xfbee2b5c0000ed7cUL, 0xfca5275a00000e96UL, 0xfbec2d6500001391UL,
  0xfd78337b00009de8UL, 0xfc1c33a300003d0dUL, 0xfaf72be90000db3dUL, 0xfbb820d60000a1abUL,
  0xfb73238e0000ced7UL, 0xfbf6261b00003374UL, 0xfd752c6d0000c558UL, 0xfcb52c9c00000cb0UL,
  0x0080224100001636UL, 0x080000005c000042UL, 0x5c020123156000fcUL, 0x0000000000098000UL,
  0x000063ff0000000fUL, 0x000000000000c7ffUL, 0x078403f100000000UL, 0x5c0c004300000001UL,
  0x2042204200000000UL, 0x000000015c0b7c00UL, 0xfc0643aa5d000803UL, 0xfbcb59ac0000a414UL,
  0xfef1774700009131UL, 0xfe40557100009b49UL, 0xfd05480c00005ba3UL, 0xfc502c1c00008acaUL,
  0xfe8164ee0000176cUL, 0xfdfb36290000f540UL, 0xfc652d970000de33UL, 0xfbe36f150000196aUL,
  0xfbcc267900009b1eUL, 0xfbf3288200006aecUL, 0xfd734aa5000038e3UL, 0xfbbc6c800000cb64UL,
  0xfddf451c00006cdeUL, 0xfca0506000006aa3UL, 0xfe5253650000c56cUL, 0xfe9c4bdd0000e019UL,
  0xfbe62f4000006216UL, 0xfcd147cd0000a82dUL, 0xfcd852a2000023f0UL, 0xfa65547200002022UL,
  0xfae335f70000e702UL, 0xfd3e3db7000008deUL, 0xfd3a46e600002a13UL, 0xfd064e4c0000b9bcUL,
  0xfe134a590000a512UL, 0xfc744c200000cea5UL, 0xfe6350f20000c03eUL, 0xfcdd5b3b00001130UL,
  0xfefc3b6a0000b3b6UL, 0xfd3047200000576dUL, 0x008022610000dafeUL, 0x0800000060000042UL,
  0x60027c0015000000UL, 0x6007004300070000UL, 0x0000002000004000UL, 0x00000000600c0043UL,
  0x0080202110411041UL, 0x0008010018007c00UL, 0x342f900018020043UL, 0x180500c300006400UL,
  0x0001900000000000UL, 0x0000000000000001UL, 0x0010000000000024UL, 0x00000006180c0042UL,
  0x180d004300000007UL, 0x3431203f00000002UL, 0x0000000018110043UL, 0x0080206100000000UL,
  0x0008018420007c00UL, 0x7045833020020043UL, 0x200500c300000800UL, 0x0000000000000000UL,
  0x0000000000000000UL, 0x0010000000000024UL, 0x00000006200c0042UL, 0x200d004300000007UL,
  0x70458b6f00000001UL, 0x0000000020110043UL, 0x0080200100000008UL, 0x0008010014007c00UL,
  0x342ff40014020043UL, 0x140500c300006400UL, 0x0001900000000000UL, 0x0000000000000001UL,
  0x0010000000000024UL, 0x00000006140c0042UL, 0x140d004300000007UL, 0x3431203f00000002UL,
  0x0000000014110043UL, 0x008020c100000000UL, 0x000801002c007c00UL, 0x343058002c020043UL,
  0x2c0500c300006400UL, 0x0001900000000000UL, 0x0000000000000001UL, 0x0010000000000024UL,
  0x000000062c0c0042UL, 0x2c0d004300000007UL, 0x3431203f00000002UL, 0x000000002c110043UL,
  0x0080208100000000UL, 0x0008010024007c00UL, 0x3430bc0024020043UL, 0x240500c300006400UL,
  0x0001900000000000UL, 0x0000000000000001UL, 0x0010000000000024UL, 0x00000006240c0042UL,
  0x240d004300000007UL, 0x3431203f00000002UL, 0x0000000024110043UL, 0x0080210100000000UL,
  0x0088010034007c00UL, 0x342e000034020043UL, 0x340500c300006400UL, 0x0000c80000000000UL,
  0x0000000000000000UL, 0x0010000000000024UL, 0x00000006340c0042UL, 0x340d004300000007UL,
  0x342f903f00000002UL, 0x0000000034110043UL, 0x0080212100000000UL, 0x0008010838007c00UL,
  0x3431e80038020043UL, 0x380500c300006400UL, 0x0000640000000000UL, 0x0000000000000000UL,
  0x0010000000000024UL, 0x00000006380c0042UL, 0x380d004300000007UL, 0x3432b03f00000002UL,
  0x0000000038110043UL, 0x008020a100000000UL, 0x0008010828007c00UL, 0x3432b00028020043UL,
  0x280500c300006400UL, 0x0000640000000000UL, 0x0000000000000000UL, 0x0010000000000024UL,
  0x00000006280c0042UL, 0x280d004300000007UL, 0x3433783f00000002UL, 0x0000000028110043UL,
  0x0080204100000000UL, 0x000800081c007c00UL, 0x343378001c020123UL, 0x0020001000280028UL,
  0x0000001000000500UL, 0x0000c80000000002UL, 0x0010000000000024UL, 0x000000061c0c0042UL,
  0x1c0d004300000007UL, 0x3434403f00000002UL, 0x000000001c110043UL, 0x10047c0000000000UL,
  0x10077c0000000027UL, 0x100b006300000025UL, 0x000000030000002bUL, 0x100f012300000007UL,
  0x0000000700000001UL, 0x0000000d00000015UL, 0x0000001700000007UL, 0x0000000700000009UL,
  0x101e7c0000000019UL, 0x10207c0000000011UL, 0x10247c0000000025UL, 0x10007c000000001bUL,
  0x1c00200100000001UL, 0x3800200128002001UL, 0x001000353c007c00UL, 0x0010002140007c00UL,
  0x0010002144007c00UL, 0x0010002148007c00UL, 0x600020015c002001UL, 0x1400200168002001UL,
  0x2000200118002001UL, 0x2c00200124002001UL, 0x1c007fe434002001UL, 0x0000000000000064UL,
  0x0000006428007fe4UL, 0x38007fe400000000UL, 0x0000000000000064UL, 0x0000000210007c00UL,
  0x0000006410000424UL, 0x10007c0000000000UL, 0x10007bc440000000UL, 0x0000000000000064UL,
  0x0000000010047c00UL, 0x0000000010077c00UL, 0x00000000100b0063UL, 0x0000000000000000UL,
  0x00000000100f0123UL, 0x0000000000000000UL, 0x0000000000000000UL, 0x0000000000000000UL,
  0x0000000000000000UL, 0x00000000101e7c00UL, 0x0000000010207c00UL, 0x0000000010247c00UL,
  0x000000021c007c00UL, 0x000000641c000424UL, 0x1c007c0000000000UL, 0x1c007bc440000000UL,
  0x0000000000000064UL, 0x28007c0000800041UL, 0x2800042400000002UL, 0x0000000000000064UL,
  0x4000000028007c00UL, 0x0000006428007bc4UL, 0x008000a100000000UL, 0x0000000238007c00UL,
  0x0000006438000424UL, 0x38007c0000000000UL, 0x38007bc440000000UL, 0x0000000000000064UL,
  0x3c007c0000800121UL, 0x3c00042400000002UL, 0x0000000000000064UL, 0x400000003c007c00UL,
  0x000000643c007bc4UL, 0x0080014100000000UL, 0x0000000240007c00UL, 0x0000006440000424UL,
  0x40007c0000000000UL, 0x40007bc440000000UL, 0x0000000000000064UL, 0x44007c0000800161UL,
  0x4400042400000002UL, 0x0000000000000064UL, 0x4000000044007c00UL, 0x0000006444007bc4UL,
  0x0080018100000000UL, 0x0000000248007c00UL, 0x0000006448000424UL, 0x48007c0000000000UL,
  0x48007bc440000000UL, 0x0000000000000064UL, 0x5c007c00008001a1UL, 0x5c00042408000002UL,
  0x0000000000000064UL, 0x480000005c007c00UL, 0x000000645c007bc4UL, 0x0080024100000000UL,
  0x0800000260007c00UL, 0x0000006460000424UL, 0x60007c0000000000UL, 0x60007bc448000000UL,
  0x0000000000000064UL, 0x68007c0000800261UL, 0x6800042408000002UL, 0x0000000000000064UL,
  0x4800000068007c00UL, 0x0000006468007bc4UL, 0x008002a100000000UL, 0x0000000214007c00UL,
  0x0000006414000424UL, 0x14007c0000000000UL, 0x14007bc440000000UL, 0x0000000000000064UL,
  0x18007c0000800001UL, 0x1800042400000002UL, 0x0000000000000064UL, 0x4000000018007c00UL,
  0x0000006418007bc4UL, 0x0080002100000000UL, 0x0000000220007c00UL, 0x0000006420000424UL,
  0x20007c0000000000UL, 0x20007bc440000000UL, 0x0000000000000064UL, 0x24007c0000800061UL,
  0x2400042400000002UL, 0x0000000000000064UL, 0x4000000024007c00UL, 0x0000006424007bc4UL,
  0x0080008100000000UL, 0x000000022c007c00UL, 0x000000642c000424UL, 0x2c007c0000000000UL,
  0x2c007bc440000000UL, 0x0000000000000064UL, 0x34007c00008000c1UL, 0x3400042400000002UL,
  0x0000000000000064UL, 0x4000000034007c00UL, 0x0000006434007bc4UL, 0x0080010100000000UL,
  0x008021410000023dUL, 0x10d000343c007c00UL, 0x102001013c0200e3UL, 0x10e3430300001100UL,
  0x04ff000000280500UL, 0x0000000100270000UL, 0x000000003c0a7c00UL, 0x000000003c0d7c00UL,
  0x6400004200802281UL, 0x156000fc08000000UL, 0x0009000064020123UL, 0x0000000f00000000UL,
  0x0000c7ff000063ffUL, 0x0000000000000000UL, 0x00000001078403f1UL, 0x00000000640c0043UL,
  0x640b7c0020422042UL, 0x6500080300000001UL, 0x00001b40fee60dc9UL, 0x0000c85bfd321353UL,
  0x000026b4fd6b0d50UL, 0x0000cc34ff2a0c24UL, 0x0000351efeb60b16UL, 0x0000e8a1fe7a08ffUL,
  0x00009016feb716c7UL, 0x00007bc9ff4e0ee6UL, 0x0000f468fe2e0bd7UL, 0x00001420fe800d15UL,
  0x0000856efdd90f3dUL, 0x0000d19afe3a093aUL, 0x000014a4fea30e19UL, 0x00008eeafde40f9cUL,
  0x000081c5fdd30995UL, 0x000079d7fdf71055UL, 0x0000ee1cfedb0e11UL, 0x0000d45cfe180be9UL,
  0x000000fffdca483bUL, 0x0000597ffd890cf5UL, 0x00001cdafeca0ce1UL, 0x00008a61fee407b7UL,
  0x000048c8fe490ca4UL, 0x0000218cfeda0feeUL, 0x00008fcefe160d3aUL, 0x000010b9fdce14beUL,
  0x0000a3e5fdad1bdeUL, 0x000073e1ff1a08d1UL, 0x00003cbbff322d09UL, 0x0000dcdafe7d070cUL,
  0x0000703dfe27158eUL, 0x00007fdafe6d288aUL, 0x5c00004200802241UL, 0x1500000008000000UL,
  0x000700005c027c00UL, 0x000040005c070043UL, 0x5c0c004300000020UL, 0x1041104100000000UL,
  0x30007c00008020e1UL, 0x3002004308880300UL, 0x000042ab34337800UL, 0x00000000300500c3UL,
  0x0000000200000000UL, 0x000000240000c800UL, 0x300c004200100000UL, 0x0000000700000006UL,
  0x00000002300d0043UL, 0x301100433434403fUL, 0x0000000000000000UL, 0x1c007c0000802041UL,
  0x1c02004308880184UL, 0x000001567045bd80UL, 0x000000001c0500c3UL, 0x0000000000000000UL,
  0x0000002400000000UL, 0x1c0c004200100000UL, 0x0000000700000006UL, 0x000000011c0d0043UL,
  0x1c1100437045c1c7UL, 0x0000000800000000UL, 0x20007c0000802061UL, 0x2002012300080008UL,
  0x00280028342e0000UL, 0x0000050000200010UL, 0x0000000200000010UL, 0x000000240000c800UL,
  0x200c004200100000UL, 0x0000000700000006UL, 0x00000002200d0043UL, 0x20110043342ec83fUL,
  0x0000000000000000UL, 0x0000002510057c00UL, 0x0000000f100c0043UL, 0x101e7c0000000005UL,
  0x10227c0000000029UL, 0x10007c0000000015UL, 0x2000200100000001UL, 0x10d000353c007c00UL,
  0x640020015c002001UL, 0x300020011c002001UL, 0x0000006420007fe4UL, 0x10007c0000000000UL,
  0x1000042400000002UL, 0x0000000000000064UL, 0x4000000010007c00UL, 0x0000006410007bc4UL,
  0x10057c0000000000UL, 0x100c004300000000UL, 0x0000000000000000UL, 0x00000000101e7c00UL,
  0x0000000010227c00UL, 0x0000000220007c00UL, 0x0000006420000424UL, 0x20007c0000000000UL,
  0x20007bc440000000UL, 0x0000000000000064UL, 0x3c007c0000800061UL, 0x3c00042400000002UL,
  0x0000000000000064UL, 0x400000003c007c00UL, 0x000000643c007bc4UL, 0x0080014100000000UL,
  0x080000025c007c00UL, 0x000000645c000424UL, 0x5c007c0000000000UL, 0x5c007bc448000000UL,
  0x0000000000000064UL, 0x64007c0000800241UL, 0x6400042408000002UL, 0x0000000000000064UL,
  0x4800000064007c00UL, 0x0000006464007bc4UL, 0x0080028100000000UL, 0x000000021c007c00UL,
  0x000000641c000424UL, 0x1c007c0000000000UL, 0x1c007bc440000000UL, 0x0000000000000064UL,
  0x30007c0000800041UL, 0x3000042400000002UL, 0x0000000000000064UL, 0x4000000030007c00UL,
  0x0000006430007bc4UL, 0x008000e100000000UL, 0x008021610000025dUL, 0x0010003440007c00UL,
  0x04040303400200e3UL, 0x1063430300001155UL, 0x009f0000002800a0UL, 0x0000000100270000UL,
  0x00000000400a7c00UL, 0x00000000400d7c00UL, 0x6000004200802261UL, 0x156000fc08000000UL,
  0x0008000060020123UL, 0x0000000300000000UL, 0x0000c7ff000018ffUL, 0x0000000000000000UL,
  0x00000001078403fdUL, 0x00000000600c0043UL, 0x600b7c0020422042UL, 0x6100080300000001UL,
  0x00005e39ff8121c2UL, 0x00004963ff8d19eaUL, 0x0000e42fff7a1571UL, 0x00007e8eff782bebUL,
  0x0000de2cff7f26a9UL, 0x0000d08fff7b30fbUL, 0x00000798ff741e0bUL, 0x00008096ff5c1a4bUL,
  0x00007ec5ff793e8bUL, 0x0000aeccff823bb9UL, 0x0000232eff901ffeUL, 0x00004f07ff7d2c18UL,
  0x00001680ff802d01UL, 0x00003dfbff7f2da7UL, 0x0000d778ff792d5eUL, 0x0000518cff8127b6UL,
  0x0000284eff7f24b7UL, 0x000039d3ff8320b5UL, 0x0000a144ffac07bcUL, 0x0000ba3cffc12609UL,
  0x0000d730ff821d88UL, 0x000069f6ffa050dbUL, 0x00003396ff6f2531UL, 0x0000a653ff7d2e48UL,
  0x00006f60ff81302eUL, 0x00003c1cff933093UL, 0x0000f15fffca0715UL, 0x0000b3dbff7f43afUL,
  0x000054e4ffb907acUL, 0x00009cddff8c2f7cUL, 0x0000fdbcff8518f0UL, 0x0000d4bfffb30959UL,
  0x68000042008022a1UL, 0x1500000008000000UL, 0x0007000068027c00UL, 0x0000400068070043UL,
  0x680c004300000020UL, 0x1041104100000000UL, 0x34007c0000802101UL, 0x3402012300080000UL,
  0x00280028342e0000UL, 0x0000050000200004UL, 0x0000000100000000UL, 0x0000002400000004UL,
  0x340c004200100000UL, 0x0000000700000006UL, 0x00000008340d0043UL, 0x34110043342ec83fUL,
  0x0000000000000000UL, 0x30007c00008020e1UL, 0x3002004300080184UL, 0x0000048070459e70UL,
  0x00000000300500c3UL, 0x0000000000000000UL, 0x0000002400000000UL, 0x300c004200100000UL,
  0x0000000700000006UL, 0x00000001300d0043UL, 0x301100437045a32fUL, 0x0000000800000000UL,
  0x18007c0000802021UL, 0x1802012300080008UL, 0x00280028342ec800UL, 0x0000050000200004UL,
  0x0000000800000004UL, 0x000000240000c800UL, 0x180c004200100000UL, 0x0000000700000006UL,
  0x00000008180d0043UL, 0x18110043342f903fUL, 0x0000000000000000UL, 0x0000002b10037c00UL,
  0x00000011100f0043UL, 0x10207c000000000fUL, 0x10247c0000000017UL, 0x10007c0000000027UL,
  0x1800200100000001UL, 0x0010003540007c00UL, 0x6800200160002001UL, 0x3400200130002001UL,
  0x0000006418007fe4UL, 0x10007c0000000000UL, 0x1000042400000002UL, 0x0000000000000064UL,
  0x4000000010007c00UL, 0x0000006410007bc4UL, 0x10037c0000000000UL, 0x100f004300000000UL,
  0x0000000000000000UL, 0x0000000010207c00UL, 0x0000000010247c00UL, 0x0000000218007c00UL,
  0x0000006418000424UL, 0x18007c0000000000UL, 0x18007bc440000000UL, 0x0000000000000064UL,
  0x40007c0000800021UL, 0x4000042400000002UL, 0x0000000000000064UL, 0x4000000040007c00UL,
  0x0000006440007bc4UL, 0x0080016100000000UL, 0x0800000260007c00UL, 0x0000006460000424UL,
  0x60007c0000000000UL, 0x60007bc448000000UL, 0x0000000000000064UL, 0x68007c0000800261UL,
  0x6800042408000002UL, 0x0000000000000064UL, 0x4800000068007c00UL, 0x0000006468007bc4UL,
  0x008002a100000000UL, 0x0000000230007c00UL, 0x0000006430000424UL, 0x30007c0000000000UL,
  0x30007bc440000000UL, 0x0000000000000064UL, 0x34007c00008000e1UL, 0x3400042400000002UL,
  0x0000000000000064UL, 0x4000000034007c00UL, 0x0000006434007bc4UL, 0x0080010100000000UL,
  0x008021810000027dUL, 0x10d0003444007c00UL, 0x10200101440200e3UL, 0x10e3430300001100UL,
  0x04ff000000280500UL, 0x0000000100270000UL, 0x00000000440a7c00UL, 0x00000000440d7c00UL,
  0x5c00004200802241UL, 0x356000fc08000000UL, 0x000a00005c020123UL, 0x0000000f00000000UL,
  0x0000c7ff000063ffUL, 0x0000000000000000UL, 0x00000001078403f1UL, 0x000000005c0c0063UL,
  0xff80000b20422042UL, 0x000000015c0b7c00UL, 0xf88f27dd5d000803UL, 0xf950370300004aefUL,
  0xf9714fc300003787UL, 0xf9f1309b0000350fUL, 0xf9202d6f00000db4UL, 0xf8b21e1100001d32UL,
  0xf88f2c52000064b9UL, 0xf8f94eca00004a20UL, 0xf64f42440000113bUL, 0xf9ab2f5a000083f5UL,
  0xf989301900004540UL, 0xf9f254700000818fUL, 0xf94f26b50000bd51UL, 0xf9422b6700007499UL,
  0xfa9a23ec00003ae3UL, 0xf8fa2df1000037efUL, 0xf86b277900004dc9UL, 0xf82233d400009a50UL,
  0xf93248da0000d8e4UL, 0xfa724499000006faUL, 0xfa2b480300009b23UL, 0xfa7266d00000f111UL,
  0xfaf57a220000e815UL, 0xfbe555110000f5c6UL, 0xfa19296d0000cc65UL, 0xf7bd24e90000fa6cUL,
  0xf9162a0e00003eb8UL, 0xf82f30cf0000f6e0UL, 0xfa163dfb00003029UL, 0xf9b025310000994eUL,
  0xf8fd46f000006d13UL, 0xf8ad513f0000e374UL, 0x00802281000033deUL, 0x0800000064000042UL,
  0x64027c0005000160UL, 0x6407004300071801UL, 0x0000400045d345d3UL, 0x00000000640c0043UL,
  0x0080226110411041UL, 0x0800000060000042UL, 0x60027c0015000000UL, 0x6007004300070000UL,
  0x0000002000004000UL, 0x00000000600c0043UL, 0x0080208110411041UL, 0x0888030024007c00UL,
  0x342ec80024020043UL, 0x240500c3000042abUL, 0x0000000000000000UL, 0x0000c80000000002UL,
  0x0010000000000024UL, 0x00000006240c0042UL, 0x240d004300000007UL, 0x342f903f00000002UL,
  0x0000000024110043UL, 0x008020a100000000UL, 0x0888018428007c00UL, 0x7045c19028020043UL,
  0x280500c300000156UL, 0x0000000000000000UL, 0x0000000000000000UL, 0x0010000000000024UL,
  0x00000006280c0042UL, 0x280d004300000007UL, 0x7045c5d700000001UL, 0x0000000028110043UL,
  0x0080200100000008UL, 0x0008010014007c00UL, 0x3432b00014020043UL, 0x140500c300006400UL,
  0x0000640000000000UL, 0x0000000000000000UL, 0x0010000000000024UL, 0x00000006140c0042UL,
  0x140d004300000007UL, 0x3433783f00000002UL, 0x0000000014110043UL, 0x008020c100000000UL,
  0x000801082c007c00UL, 0x343378002c020043UL, 0x2c0500c300006400UL, 0x0000640000000000UL,
  0x0000000000000000UL, 0x0010000000000024UL, 0x000000062c0c0042UL, 0x2c0d004300000007UL,
  0x3434403f00000002UL, 0x000000002c110043UL, 0x008020e100000000UL, 0x0008000830007c00UL,
  0x342e000030020123UL, 0x0020001000280028UL, 0x0000001000000500UL, 0x0000c80000000002UL,
  0x0010000000000024UL, 0x00000006300c0042UL, 0x300d004300000007UL, 0x342ec83f00000002UL,
  0x0000000030110043UL, 0x1008004300000000UL, 0x0000002700000029UL, 0x0000000910120043UL,
  0x101e7c000000000bUL, 0x10207c0000000019UL, 0x1022004300000029UL, 0x0000002500000001UL,
  0x0000000110007c00UL, 0x300020012c002001UL, 0x10d0003544007c00UL, 0x600020015c002001UL,
  0x1400200164002001UL, 0x2800200124002001UL, 0x000000642c007fe4UL, 0x30007fe400000000UL,
  0x0000000000000064UL, 0x0000000210007c00UL, 0x0000006410000424UL, 0x10007c0000000000UL,
  0x10007bc440000000UL, 0x0000000000000064UL, 0x0000000010080043UL, 0x1012004300000000UL,
  0x0000000000000000UL, 0x00000000101e7c00UL, 0x0000000010207c00UL, 0x0000000010220043UL,
  0x2c007c0000000000UL, 0x2c00042400000002UL, 0x0000000000000064UL, 0x400000002c007c00UL,
  0x000000642c007bc4UL, 0x008000c100000000UL, 0x0000000230007c00UL, 0x0000006430000424UL,
  0x30007c0000000000UL, 0x30007bc440000000UL, 0x0000000000000064UL, 0x44007c00008000e1UL,
  0x4400042400000002UL, 0x0000000000000064UL, 0x4000000044007c00UL, 0x0000006444007bc4UL,
  0x0080018100000000UL, 0x080000025c007c00UL, 0x000000645c000424UL, 0x5c007c0000000000UL,
  0x5c007bc448000000UL, 0x0000000000000064UL, 0x60007c0000800241UL, 0x6000042408000002UL,
  0x0000000000000064UL, 0x4800000060007c00UL, 0x0000006460007bc4UL, 0x0080026100000000UL,
  0x0800000264007c00UL, 0x0000006464000424UL, 0x64007c0000000000UL, 0x64007bc448000000UL,
  0x0000000000000064UL, 0x14007c0000800281UL, 0x1400042400000002UL, 0x0000000000000064UL,
  0x4000000014007c00UL, 0x0000006414007bc4UL, 0x0080000100000000UL, 0x0000000224007c00UL,
  0x0000006424000424UL, 0x24007c0000000000UL, 0x24007bc440000000UL, 0x0000000000000064UL,
  0x28007c0000800081UL, 0x2800042400000002UL, 0x0000000000000064UL, 0x4000000028007c00UL,
  0x0000006428007bc4UL, 0x008000a100000000UL, 0x008021a10000029dUL, 0x10d0003448007c00UL,
  0x10200101480200e3UL, 0x10e3430300001100UL, 0x04ff000000280500UL, 0x0000000100270000UL,
  0x00000000480a7c00UL, 0x00000000480d7c00UL, 0x68000042008022a1UL, 0x156000fc08000000UL,
  0x0009000068020123UL, 0x0000000f00000000UL, 0x0000c7ff000063ffUL, 0x0000000000000000UL,
  0x00000001078403f1UL, 0x00000000680c0043UL, 0x680b7c0020422042UL, 0x6900080300000001UL,
  0x0000a35eff031acaUL, 0x0000e05efd201c22UL, 0x000094bbff331c8bUL, 0x000053defe610eedUL,
  0x00004363ff503393UL, 0x00009c50ff5b118dUL, 0x0000df94ff3c19c4UL, 0x000058a1fdb51b1dUL,
  0x00005559fd390fc4UL, 0x000071d0febe0e52UL, 0x0000199ffef60d0bUL, 0x00008372ffd23816UL,
  0x0000a91cfe5d40deUL, 0x00009e67fc3c1a7fUL, 0x0000960afd5c2102UL, 0x000001a6fe702df8UL,
  0x00006847ff090c60UL, 0x0000d987fba443f5UL, 0x000055f4fedc10b9UL, 0x0000b5a0ff9c1afaUL,
  0x0000ca6afede1f1bUL, 0x000065e5ff6a2187UL, 0x00008f1ffe92146aUL, 0x0000f1b4ff911ef4UL,
  0x000072a4fec5302eUL, 0x00003782fe3a3992UL, 0x0000c5b7fe8c06e2UL, 0x00007c60fd321adbUL,
  0x0000dd48fe98179eUL, 0x0000c14cff351a69UL, 0x000019f1ff43150bUL, 0x0000a094fede1dcbUL,
  0x5c00004200802241UL, 0x1500000008000000UL, 0x000700005c027c00UL, 0x000040005c070043UL,
  0x5c0c004300000020UL, 0x1041104100000000UL, 0x14007c0000802001UL, 0x1402004308880300UL,
  0x000042ab342e0000UL, 0x00000000140500c3UL, 0x0000000200000000UL, 0x000000240000c800UL,
  0x140c004200100000UL, 0x0000000700000006UL, 0x00000002140d0043UL, 0x14110043342ec83fUL,
  0x0000000000000000UL, 0x2c007c00008020c1UL, 0x2c02004308880184UL, 0x000001567045c5a0UL,
  0x000000002c0500c3UL, 0x0000000000000000UL, 0x0000002400000000UL, 0x2c0c004200100000UL,
  0x0000000700000006UL, 0x000000012c0d0043UL, 0x2c1100437045c9e7UL, 0x0000000800000000UL,
  0x30007c00008020e1UL, 0x3002012300080008UL, 0x002800283432b000UL, 0x0000050000200010UL,
  0x0000000200000010UL, 0x000000240000c800UL, 0x300c004200100000UL, 0x0000000700000006UL,
  0x00000002300d0043UL, 0x301100433433783fUL, 0x0000000000000000UL, 0x0000002510097c00UL,
  0x0000000110150043UL, 0x101e7c000000000dUL, 0x10247c000000002bUL, 0x10007c000000001bUL,
  0x3000200100000001UL, 0x10d0003548007c00UL, 0x680020015c002001UL, 0x2c00200114002001UL,
  0x0000006430007fe4UL, 0x10007c0000000000UL, 0x1000042400000002UL, 0x0000000000000064UL,
  0x4000000010007c00UL, 0x0000006410007bc4UL, 0x10097c0000000000UL, 0x1015004300000000UL,
  0x0000000000000000UL, 0x00000000101e7c00UL, 0x0000000010247c00UL, 0x0000000230007c00UL,
  0x0000006430000424UL, 0x30007c0000000000UL, 0x30007bc440000000UL, 0x0000000000000064UL,
  0x48007c00008000e1UL, 0x4800042400000002UL, 0x0000000000000064UL, 0x4000000048007c00UL,
  0x0000006448007bc4UL, 0x008001a100000000UL, 0x080000025c007c00UL, 0x000000645c000424UL,
  0x5c007c0000000000UL, 0x5c007bc448000000UL, 0x0000000000000064UL, 0x68007c0000800241UL,
  0x6800042408000002UL, 0x0000000000000064UL, 0x4800000068007c00UL, 0x0000006468007bc4UL,
  0x008002a100000000UL, 0x0000000214007c00UL, 0x0000006414000424UL, 0x14007c0000000000UL,
  0x14007bc440000000UL, 0x0000000000000064UL, 0x2c007c0000800001UL, 0x2c00042400000002UL,
  0x0000000000000064UL, 0x400000002c007c00UL, 0x000000642c007bc4UL, 0x008000c100000000UL,
  0x00802141000002bdUL, 0x001000343c007c00UL, 0x040403033c0200e3UL, 0x1063430300001155UL,
  0x009f0000002800a0UL, 0x0000000100270000UL, 0x000000003c0a7c00UL, 0x000000003c0d7c00UL,
  0x6000004200802261UL, 0x156000fc08000000UL, 0x0008000060020123UL, 0x0000000300000000UL,
  0x0000c7ff000018ffUL, 0x0000000000000000UL, 0x00000001078403fdUL, 0x00000000600c0043UL,
  0x600b7c0020422042UL, 0x6100080300000001UL, 0x000005beff901731UL, 0x0000e40bff740e44UL,
  0x0000711200000b16UL, 0x000037daff9c2d02UL, 0x00001396ff7d1370UL, 0x00000653ff5e3c59UL,
  0x0000cf59ff851abdUL, 0x0000f4aaffdc17c5UL, 0x000019b8ff822669UL, 0x0000b86dff322d21UL,
  0x0000ca5eff6c4bf3UL, 0x00009b25ff7810faUL, 0x0000f284ffe707d4UL, 0x000035e7ff9110cfUL,
  0x0000d159ff77132cUL, 0x00002e23ffb1090aUL, 0x0000a8fd009e1f62UL, 0x00003848ff6f09b2UL,
  0x00003418ffe3210cUL, 0x0000e1f3ff6c234eUL, 0x000089f0ff6f161fUL, 0x0000a24cffaf1b15UL,
  0x00006d91ff511c7dUL, 0x0000c7f4ff9115edUL, 0x00002178ff421716UL, 0x0000fc1cffbc04d8UL,
  0x00006a0bff9446fbUL, 0x0000b429ff7a2a34UL, 0x0000c69eff891c5cUL, 0x0000d56aff841326UL,
  0x0000a17eff6131d6UL, 0x0000d835ff76214eUL, 0x6400004200802281UL, 0x1500000008000000UL,
  0x0007000064027c00UL, 0x0000400064070043UL, 0x640c004300000020UL, 0x1041104100000000UL,
  0x28007c00008020a1UL, 0x2802012300080000UL, 0x002800283432b000UL, 0x0000050000200004UL,
  0x0000000100000000UL, 0x0000002400000004UL, 0x280c004200100000UL, 0x0000000700000006UL,
  0x00000008280d0043UL, 0x281100433433783fUL, 0x0000000000000000UL, 0x34007c0000802101UL,
  0x3402004300080184UL, 0x000004807045a2f0UL, 0x00000000340500c3UL, 0x0000000000000000UL,
  0x0000002400000000UL, 0x340c004200100000UL, 0x0000000700000006UL, 0x00000001340d0043UL,
  0x341100437045a7afUL, 0x0000000800000000UL, 0x1c007c0000802041UL, 0x1c02012300080008UL,
  0x00280028342ec800UL, 0x0000050000200004UL, 0x0000000800000004UL, 0x000000240000c800UL,
  0x1c0c004200100000UL, 0x0000000700000006UL, 0x000000081c0d0043UL, 0x1c110043342f903fUL,
  0x0000000000000000UL, 0x0000002910047c00UL, 0x0000000b100c0043UL, 0x10207c0000000011UL,
  0x10227c0000000015UL, 0x10007c0000000027UL, 0x1c00200100000001UL, 0x001000353c007c00UL,
  0x6400200160002001UL, 0x3400200128002001UL, 0x000000641c007fe4UL, 0x10007c0000000000UL,
  0x1000042400000002UL, 0x0000000000000064UL, 0x4000000010007c00UL, 0x0000006410007bc4UL,
  0x10047c0000000000UL, 0x100c004300000000UL, 0x0000000000000000UL, 0x0000000010207c00UL,
  0x0000000010227c00UL, 0x000000021c007c00UL, 0x000000641c000424UL, 0x1c007c0000000000UL,
  0x1c007bc440000000UL, 0x0000000000000064UL, 0x3c007c0000800041UL, 0x3c00042400000002UL,
  0x0000000000000064UL, 0x400000003c007c00UL, 0x000000643c007bc4UL, 0x0080014100000000UL,
  0x0800000260007c00UL, 0x0000006460000424UL, 0x60007c0000000000UL, 0x60007bc448000000UL,
  0x0000000000000064UL, 0x64007c0000800261UL, 0x6400042408000002UL, 0x0000000000000064UL,
  0x4800000064007c00UL, 0x0000006464007bc4UL, 0x0080028100000000UL, 0x0000000228007c00UL,
  0x0000006428000424UL, 0x28007c0000000000UL, 0x28007bc440000000UL, 0x0000000000000064UL,
  0x34007c00008000a1UL, 0x3400042400000002UL, 0x0000000000000064UL, 0x4000000034007c00UL,
  0x0000006434007bc4UL, 0x0080010100000000UL, 0x00802161000002ddUL, 0x10d0003440007c00UL,
  0x10200101400200e3UL, 0x10e3430300001100UL, 0x04ff000000280500UL, 0x0000000100270000UL,
  0x00000000400a7c00UL, 0x00000000400d7c00UL, 0x5c00004200802241UL, 0x356000fc08000000UL,
  0x000a00005c020123UL, 0x0000000f00000000UL, 0x0000c7ff000063ffUL, 0x0000000000000000UL,
  0x00000001078403f1UL, 0x000000005c0c0063UL, 0xff80ffee20422042UL, 0x000000015c0b7c00UL,
  0xf7a6346f5d000803UL, 0xf6d13b4400005db2UL, 0xf8cc3e0e00000213UL, 0xf78e43540000e48bUL,
  0xf68e422400003835UL, 0xf9c24b6500005020UL, 0xf8883d060000f0deUL, 0xf89d2389000086d4UL,
  0xf82727a800003632UL, 0xf95329bc0000b1e9UL, 0xf5d04ed20000a94dUL, 0xf5a938710000df62UL,
  0xf6fe582200009eeaUL, 0xf9133b520000c952UL, 0xf851372d0000c828UL, 0xf7fc2d7a0000335eUL,
  0xfad2471e0000e9d5UL, 0xf946408f0000cb96UL, 0xf8313dc200002bd0UL, 0xf8942ada000055a8UL,
  0xf8fd4d230000a5b5UL, 0xf9a141b70000e50eUL, 0xf5e22f4a0000c1a5UL, 0xf8f12d52000031cbUL,
  0xf82827330000219aUL, 0xf8f653600000a270UL, 0xfa1431370000aa48UL, 0xf7ef3741000019f0UL,
  0xf87d31520000539fUL, 0xf9334f390000b4d7UL, 0xf9012c2f00007217UL, 0xf90432640000662aUL,
  0x008022a1000084afUL, 0x0800000068000042UL, 0x68027c0005000160UL, 0x6807004300071801UL,
  0x0000400065016501UL, 0x00000000680c0043UL, 0x0080226110411041UL, 0x0800000060000042UL,
  0x60027c0015000000UL, 0x6007004300070000UL, 0x0000002000004000UL, 0x00000000600c0043UL,
  0x008020c110411041UL, 0x088803002c007c00UL, 0x342ec8002c020043UL, 0x2c0500c3000042abUL,
  0x0000000000000000UL, 0x0000c80000000002UL, 0x0010000000000024UL, 0x000000062c0c0042UL,
  0x2c0d004300000007UL, 0x342f903f00000002UL, 0x000000002c110043UL, 0x0080210100000000UL,
  0x0888018434007c00UL, 0x7045c9b034020043UL, 0x340500c300000156UL, 0x0000000000000000UL,
  0x0000000000000000UL, 0x0010000000000024UL, 0x00000006340c0042UL, 0x340d004300000007UL,
  0x7045cdf700000001UL, 0x0000000034110043UL, 0x0080208100000008UL, 0x0008010024007c00UL,
  0x3433780024020043UL, 0x240500c300006400UL, 0x0000640000000000UL, 0x0000000000000000UL,
  0x0010000000000024UL, 0x00000006240c0042UL, 0x240d004300000007UL, 0x3434403f00000002UL,
  0x0000000024110043UL, 0x0080206100000000UL, 0x0008010820007c00UL, 0x3432b00020020043UL,
  0x200500c300006400UL, 0x0000640000000000UL, 0x0000000000000000UL, 0x0010000000000024UL,
  0x00000006200c0042UL, 0x200d004300000007UL, 0x3433783f00000002UL, 0x0000000020110043UL,
  0x0080202100000000UL, 0x0008000818007c00UL, 0x342e000018020123UL, 0x0020001000280028UL,
  0x0000001000000500UL, 0x0000c80000000002UL, 0x0010000000000024UL, 0x00000006180c0042UL,
  0x180d004300000007UL, 0x342ec83f00000002UL, 0x0000000018110043UL, 0x10037c0000000000UL,
  0x10057c0000000027UL, 0x100f00430000002bUL, 0x000000110000000dUL, 0x00000017101e7c00UL,
  0x0000002b10207c00UL, 0x0000000910240043UL, 0x10007c0000000025UL, 0x1800200100000001UL,
  0x40007c0020002001UL, 0x5c00200110d00035UL, 0x6800200160002001UL, 0x2c00200124002001UL,
  0x18007fe434002001UL, 0x0000000000000064UL, 0x0000006420007fe4UL, 0x10007c0000000000UL,
  0x1000042400000002UL, 0x0000000000000064UL, 0x4000000010007c00UL, 0x0000006410007bc4UL,
  0x10037c0000000000UL, 0x10057c0000000000UL, 0x100f004300000000UL, 0x0000000000000000UL,
  0x00000000101e7c00UL, 0x0000000010207c00UL, 0x0000000010240043UL, 0x18007c0000000000UL,
  0x1800042400000002UL, 0x0000000000000064UL, 0x4000000018007c00UL, 0x0000006418007bc4UL,
  0x0080002100000000UL, 0x0000000220007c00UL, 0x0000006420000424UL, 0x20007c0000000000UL,
  0x20007bc440000000UL, 0x0000000000000064UL, 0x40007c0000800061UL, 0x4000042400000002UL,
  0x0000000000000064UL, 0x4000000040007c00UL, 0x0000006440007bc4UL, 0x0080016100000000UL,
  0x080000025c007c00UL, 0x000000645c000424UL, 0x5c007c0000000000UL, 0x5c007bc448000000UL,
  0x0000000000000064UL, 0x60007c0000800241UL, 0x6000042408000002UL, 0x0000000000000064UL,
  0x4800000060007c00UL, 0x0000006460007bc4UL, 0x0080026100000000UL, 0x0800000268007c00UL,
  0x0000006468000424UL, 0x68007c0000000000UL, 0x68007bc448000000UL, 0x0000000000000064UL,
  0x24007c00008002a1UL, 0x2400042400000002UL, 0x0000000000000064UL, 0x4000000024007c00UL,
  0x0000006424007bc4UL, 0x0080008100000000UL, 0x000000022c007c00UL, 0x000000642c000424UL,
  0x2c007c0000000000UL, 0x2c007bc440000000UL, 0x0000000000000064UL, 0x34007c00008000c1UL,
  0x3400042400000002UL, 0x0000000000000064UL, 0x4000000034007c00UL, 0x0000006434007bc4UL,
  0x0080010100000000UL, 0x00802181000002fdUL, 0x10d0003444007c00UL, 0x10200101440200e3UL,
  0x10e3430300001100UL, 0x04ff000000280500UL, 0x0000000100270000UL, 0x00000000440a7c00UL,
  0x00000000440d7c00UL, 0x6400004200802281UL, 0x156000fc08000000UL, 0x0009000064020123UL,
  0x0000000f00000000UL, 0x0000c7ff000063ffUL, 0x0000000000000000UL, 0x00000001078403f1UL,
  0x00000000640c0043UL, 0x640b7c0020422042UL, 0x6500080300000001UL, 0x0000d761fe7e1b28UL,
  0x000068a8fe241812UL, 0x00000333fde619ccUL, 0x00008141fee50e50UL, 0x0000f06cfd5b294cUL,
  0x0000c5ccfe7622f3UL, 0x000052a6fe07352eUL, 0x0000fbe3fdba134fUL, 0x0000e65afb943f9bUL,
  0x0000ff1cfdc31374UL, 0x0000ba3ffe7c19c5UL, 0x0000d1f8000723e6UL, 0x00006907fe2e2084UL,
  0x000096d2fc233a7bUL, 0x0000b99ffd472e0fUL, 0x0000383dfeca141cUL, 0x000045fffc9730abUL,
  0x00009145ff6c3d00UL, 0x000087dbfe2e1ac7UL, 0x0000ba25fe644ae1UL, 0x0000cbb6fc8c48a1UL,
  0x00008879fef811cbUL, 0x000013f3ffc94552UL, 0x0000c444ff1818deUL, 0x0000655ffd0c2764UL,
  0x00009b40ff7f38fcUL, 0x00009dd9fed610e8UL, 0x000084b6fd67341eUL, 0x000062aafd5f3d41UL,
  0x0000d4abfe2614ddUL, 0x00008cb4fd510f35UL, 0x0000822cfd332494UL, 0x5c00004200802241UL,
  0x1500000008000000UL, 0x000700005c027c00UL, 0x000040005c070043UL, 0x5c0c004300000020UL,
  0x1041104100000000UL, 0x20007c0000802061UL, 0x2002004308880300UL, 0x000042ab342e0000UL,
  0x00000000200500c3UL, 0x0000000200000000UL, 0x000000240000c800UL, 0x200c004200100000UL,
  0x0000000700000006UL, 0x00000002200d0043UL, 0x20110043342ec83fUL, 0x0000000000000000UL,
  0x28007c00008020a1UL, 0x2802004308880184UL, 0x000001567045cdc0UL, 0x00000000280500c3UL,
  0x0000000000000000UL, 0x0000002400000000UL, 0x280c004200100000UL, 0x0000000700000006UL,
  0x00000001280d0043UL, 0x281100437045d207UL, 0x0000000800000000UL, 0x38007c0000802121UL,
  0x3802012300080008UL, 0x00280028342ec800UL, 0x0000050000200010UL, 0x0000000200000010UL,
  0x000000240000c800UL, 0x380c004200100000UL, 0x0000000700000006UL, 0x00000002380d0043UL,
  0x38110043342f903fUL, 0x0000000000000000UL, 0x00000025100b7c00UL, 0x0000000710120043UL,
  0x101e7c000000000bUL, 0x10227c0000000029UL, 0x10007c0000000019UL, 0x3800200100000001UL,
  0x10d0003544007c00UL, 0x640020015c002001UL, 0x2800200120002001UL, 0x0000006438007fe4UL,
  0x10007c0000000000UL, 0x1000042400000002UL, 0x0000000000000064UL, 0x4000000010007c00UL,
  0x0000006410007bc4UL, 0x100b7c0000000000UL, 0x1012004300000000UL, 0x0000000000000000UL,
  0x00000000101e7c00UL, 0x0000000010227c00UL, 0x0000000238007c00UL, 0x0000006438000424UL,
  0x38007c0000000000UL, 0x38007bc440000000UL, 0x0000000000000064UL, 0x44007c0000800121UL,
  0x4400042400000002UL, 0x0000000000000064UL, 0x4000000044007c00UL, 0x0000006444007bc4UL,
  0x0080018100000000UL, 0x080000025c007c00UL, 0x000000645c000424UL, 0x5c007c0000000000UL,
  0x5c007bc448000000UL, 0x0000000000000064UL, 0x64007c0000800241UL, 0x6400042408000002UL,
  0x0000000000000064UL, 0x4800000064007c00UL, 0x0000006464007bc4UL, 0x0080028100000000UL,
  0x0000000220007c00UL, 0x0000006420000424UL, 0x20007c0000000000UL, 0x20007bc440000000UL,
  0x0000000000000064UL, 0x28007c0000800061UL, 0x2800042400000002UL, 0x0000000000000064UL,
  0x4000000028007c00UL, 0x0000006428007bc4UL, 0x008000a100000000UL, 0x008021a10000031dUL,
  0x0010003448007c00UL, 0x04040303480200e3UL, 0x1063430300001155UL, 0x009f0000002800a0UL,
  0x0000000100270000UL, 0x00000000480a7c00UL, 0x00000000480d7c00UL, 0x6000004200802261UL,
  0x156000fc08000000UL, 0x0008800060020123UL, 0x0000000300000000UL, 0x0000c7ff000018ffUL,
  0x0000000000000000UL, 0x00000001078403fdUL, 0x00000000600c0043UL, 0x600b7c0020422042UL,
  0x6100080300000001UL, 0x0000f108ff462eb7UL, 0x00009f92fefb3dd1UL, 0x00006544ff7b1cb1UL,
  0x0000a337ff145642UL, 0x0000eaabff581115UL, 0x0000b4b6feea1de4UL, 0x00004f84ff060b9fUL,
  0x00000251fee43155UL, 0x000058cffef30cc1UL, 0x0000ff66ffe12670UL, 0x0000fd3bfedf37bfUL,
  0x0000c486ffa70fd2UL, 0x0000877cfec541b0UL, 0x000085c0fefe1273UL, 0x000050eaff080e0dUL,
  0x0000be8ffe4f638dUL, 0x00007c35ff0b32cdUL, 0x00002a9efe9f1a08UL, 0x0000a93cff323200UL,
  0x0000c293fed3171dUL, 0x0000da2bfedd17c3UL, 0x00006296ff2d5d52UL, 0x0000492afef518f7UL,
  0x0000f47affd20ffeUL, 0x00005300ff981805UL, 0x0000a77bfed0137aUL, 0x00008a8aff463ed7UL,
  0x000041d6fec12211UL, 0x0000c0ecfecb0f0aUL, 0x00007b0bff012b52UL, 0x00004203ffb52be5UL,
  0x00003e3bff0322f5UL, 0x68000042008022a1UL, 0x1500000008000000UL, 0x0007000068027c00UL,
  0x0000400068070043UL, 0x680c004300000020UL, 0x1041104100000000UL, 0x28007c00008020a1UL,
  0x2802012300080000UL, 0x00280028342ec800UL, 0x0000050000200004UL, 0x0000000100000000UL,
  0x0000002400000004UL, 0x280c004200100000UL, 0x0000000700000006UL, 0x00000008280d0043UL,
  0x28110043342f903fUL, 0x0000000000000000UL, 0x30007c00008020e1UL, 0x3002004300080184UL,
  0x000004807045a770UL, 0x00000000300500c3UL, 0x0000000000000000UL, 0x0000002400000000UL,
  0x300c004200100000UL, 0x0000000700000006UL, 0x00000001300d0043UL, 0x301100437045ac2fUL,
  0x0000000800000000UL, 0x14007c0000802001UL, 0x1402012300080008UL, 0x0028002834337800UL,
  0x0000050000200004UL, 0x0000000800000004UL, 0x000000240000c800UL, 0x140c004200100000UL,
  0x0000000700000006UL, 0x00000008140d0043UL, 0x141100433434403fUL, 0x0000000000000000UL,
  0x0000002b10027c00UL, 0x0000000b10150043UL, 0x10207c000000000fUL, 0x10247c000000001bUL,
  0x10007c0000000027UL, 0x1400200100000001UL, 0x0010003548007c00UL, 0x6800200160002001UL,
  0x3000200128002001UL, 0x0000006414007fe4UL, 0x10007c0000000000UL, 0x1000042400000002UL,
  0x0000000000000064UL, 0x4000000010007c00UL, 0x0000006410007bc4UL, 0x10027c0000000000UL,
  0x1015004300000000UL, 0x0000000000000000UL, 0x0000000010207c00UL, 0x0000000010247c00UL,
  0x0000000214007c00UL, 0x0000006414000424UL, 0x14007c0000000000UL, 0x14007bc440000000UL,
  0x0000000000000064UL, 0x48007c0000800001UL, 0x4800042400000002UL, 0x0000000000000064UL,
  0x4000000048007c00UL, 0x0000006448007bc4UL, 0x008001a100000000UL, 0x0800000260007c00UL,
  0x0000006460000424UL, 0x60007c0000000000UL, 0x60007bc448000000UL, 0x0000000000000064UL,
  0x68007c0000800261UL, 0x6800042408000002UL, 0x0000000000000064UL, 0x4800000068007c00UL,
  0x0000006468007bc4UL, 0x008002a100000000UL, 0x0000000228007c00UL, 0x0000006428000424UL,
  0x28007c0000000000UL, 0x28007bc440000000UL, 0x0000000000000064UL, 0x30007c00008000a1UL,
  0x3000042400000002UL, 0x0000000000000064UL, 0x4000000030007c00UL, 0x0000006430007bc4UL,
  0x008000e100000000UL, 0x008021410000033dUL, 0x10d000343c007c00UL, 0x102001013c0200e3UL,
  0x10e3430300001100UL, 0x04ff000000280500UL, 0x0000000100270000UL, 0x000000003c0a7c00UL,
  0x000000003c0d7c00UL, 0x5c00004200802241UL, 0x356000fc08000000UL, 0x000a00005c020123UL,
  0x0000000f00000000UL, 0x0000c7ff000063ffUL, 0x0000000000000000UL, 0x00000001078403f1UL,
  0x000000005c0c0063UL, 0xff80ffdb20422042UL, 0x000000015c0b7c00UL, 0xf89f1e1a5d000803UL,
  0xf9c43afe00005fecUL, 0xf73b3efd00002a44UL, 0xf91123c10000c628UL, 0xf7ae39e100003882UL,
  0xf8533b5e000077b5UL, 0xf8bb25c40000fa39UL, 0xf5ea35b70000ff78UL, 0xf99f456300009602UL,
  0xf7443a0100003483UL, 0xf8354938000006c2UL, 0xf9631b750000a0c9UL, 0xfa834c6a0000bdb3UL,
  0xf7c245230000b6e4UL, 0xf79252640000dd6cUL, 0xfa5e1fb200002c3bUL, 0xf7e52a1d0000cb0fUL,
  0xf77b331400007e87UL, 0xf8753a40000037a2UL, 0xf72859940000360bUL, 0xf5b21fd90000ef80UL,
  0xfa843b58000017e2UL, 0xf8c741e60000898bUL, 0xf74439dc0000f294UL, 0xf903247d0000a30cUL,
  0xf99836930000880eUL, 0xf742471700008c39UL, 0xf8682f4c00002805UL, 0xf899348500008b40UL,
  0xf9412db700003ae0UL, 0xf5bd3d2900008df1UL, 0xf72042790000a765UL, 0x008022810000fd36UL,
  0x0800000064000042UL, 0x64027c0005000160UL, 0x6407004300071801UL, 0x00004000699b699bUL,
  0x00000000640c0043UL, 0x008020e110411041UL, 0x0888030030007c00UL, 0x3433780030020043UL,
  0x300500c3000042abUL, 0x0000000000000000UL, 0x0000c80000000002UL, 0x0010000000000024UL,
  0x00000006300c0042UL, 0x300d004300000007UL, 0x3434403f00000002UL, 0x0000000030110043UL,
  0x0080212100000000UL, 0x0888018438007c00UL, 0x7045d1d038020043UL, 0x380500c300000156UL,
  0x0000000000000000UL, 0x0000000000000000UL, 0x0010000000000024UL, 0x00000006380c0042UL,
  0x380d004300000007UL, 0x7045d61700000001UL, 0x0000000038110043UL, 0x0080208100000008UL,
  0x0008010024007c00UL, 0x3432b00024020043UL, 0x240500c300006400UL, 0x0000640000000000UL,
  0x0000000000000000UL, 0x0010000000000024UL, 0x00000006240c0042UL, 0x240d004300000007UL,
  0x3433783f00000002UL, 0x0000000024110043UL, 0x0080206100000000UL, 0x0008010820007c00UL,
  0x3431200020020043UL, 0x200500c300006400UL, 0x0000640000000000UL, 0x0000000000000000UL,
  0x0010000000000024UL, 0x00000006200c0042UL, 0x200d004300000007UL, 0x3431e83f00000002UL,
  0x0000000020110043UL, 0x10057c0000000000UL, 0x100c004300000029UL, 0x000000130000000fUL,
  0x00000015101e7c00UL, 0x0000000910220043UL, 0x10007c0000000025UL, 0x2000200100000001UL,
  0x10d000353c007c00UL, 0x640020015c002001UL, 0x3000200124002001UL, 0x20007fe438002001UL,
  0x0000000000000064UL, 0x0000000210007c00UL, 0x0000006410000424UL, 0x10007c0000000000UL,
  0x10007bc440000000UL, 0x0000000000000064UL, 0x0000000010057c00UL, 0x00000000100c0043UL,
  0x101e7c0000000000UL, 0x1022004300000000UL, 0x0000000000000000UL, 0x0000000220007c00UL,
  0x0000006420000424UL, 0x20007c0000000000UL, 0x20007bc440000000UL, 0x0000000000000064UL,
  0x3c007c0000800061UL, 0x3c00042400000002UL, 0x0000000000000064UL, 0x400000003c007c00UL,
  0x000000643c007bc4UL, 0x0080014100000000UL, 0x080000025c007c00UL, 0x000000645c000424UL,
  0x5c007c0000000000UL, 0x5c007bc448000000UL, 0x0000000000000064UL, 0x64007c0000800241UL,
  0x6400042408000002UL, 0x0000000000000064UL, 0x4800000064007c00UL, 0x0000006464007bc4UL,
  0x0080028100000000UL, 0x0000000224007c00UL, 0x0000006424000424UL, 0x24007c0000000000UL,
  0x24007bc440000000UL, 0x0000000000000064UL, 0x30007c0000800081UL, 0x3000042400000002UL,
  0x0000000000000064UL, 0x4000000030007c00UL, 0x0000006430007bc4UL, 0x008000e100000000UL,
  0x0000000238007c00UL, 0x0000006438000424UL, 0x38007c0000000000UL, 0x38007bc440000000UL,
  0x0000000000000064UL, 0x0000035d00800121UL, 0x008022610000037dUL, 0x0800000060000042UL,
  0x60027c0015000000UL, 0x6007004300070000UL, 0x0000002000004000UL, 0x00000000600c0043UL,
  0x0080212110411041UL, 0x0008010038007c00UL, 0x3431200038020043UL, 0x380500c300006400UL,
  0x0000640000000000UL, 0x0000000000000000UL, 0x0010000000000024UL, 0x00000006380c0042UL,
  0x380d004300000007UL, 0x3432b03f00000004UL, 0x0000000038110043UL, 0x0080202100000000UL,
  0x0008010818007c00UL, 0x3432b00018020043UL, 0x180500c300006400UL, 0x0000640000000000UL,
  0x0000000000000000UL, 0x0010000000000024UL, 0x00000006180c0042UL, 0x180d004300000007UL,
  0x3434403f00000004UL, 0x0000000018110043UL, 0x10037c0000000000UL, 0x10207c0000000027UL,
  0x10007c0000000013UL, 0x1800200100000001UL, 0x3800200160002001UL, 0x0000006418007fe4UL,
  0x10007c0000000000UL, 0x1000042400000002UL, 0x0000000000000064UL, 0x4000000010007c00UL,
  0x0000006410007bc4UL, 0x10037c0000000000UL, 0x10207c0000000000UL, 0x18007c0000000000UL,
  0x1800042400000002UL, 0x0000000000000064UL, 0x4000000018007c00UL, 0x0000006418007bc4UL,
  0x0080002100000000UL, 0x0800000260007c00UL, 0x0000006460000424UL, 0x60007c0000000000UL,
  0x60007bc448000000UL, 0x0000000000000064UL, 0x38007c0000800261UL, 0x3800042400000002UL,
  0x0000000000000064UL, 0x4000000038007c00UL, 0x0000006438007bc4UL, 0x0080012100000000UL,
  0x008021610000039dUL, 0x0010003440007c00UL, 0x10100101400200e3UL, 0x1077400300001100UL,
  0x027f000000280280UL, 0x000f004000270000UL, 0x00000000400a7c00UL, 0x00000000400d7c00UL,
  0x44007c0000802181UL, 0x440200e300100020UL, 0x0000110010100101UL, 0x0028028010774000UL,
  0x00270000027f0000UL, 0x440a7c00001f1040UL, 0x440d7c0000000000UL, 0x008021a100000000UL,
  0x0010002048007c00UL, 0x10100101480200e3UL, 0x1077400000001100UL, 0x027f000000280280UL,
  0x002f204000270000UL, 0x00000000480a7c00UL, 0x00000000480d7c00UL, 0x3c007c0000802141UL,
  0x3c0200e300100020UL, 0x0000110010100101UL, 0x0028028010634300UL, 0x00270000027f0000UL,
  0x3c0a7c00003f3040UL, 0x3c0d7c0000000000UL, 0x008022a100000000UL, 0x0800000068000042UL,
  0x68020123156000fcUL, 0x0000000000090000UL, 0x000063ff0000000fUL, 0x0000000000018fffUL,
  0x070403f100000000UL, 0x680c004300000001UL, 0x2042204200000000UL, 0x00000001680b7c00UL,
  0xfbe22cde69001003UL, 0xfe64233800003270UL, 0xfec4283300009517UL, 0xfe0b162400009f51UL,
  0xfcab20510000704bUL, 0xfd5935540000518aUL, 0xff7b125a0000c9f9UL, 0xfdbd1806000070d7UL,
  0xff75289c0000121fUL, 0xfebd071100007759UL, 0xfe0811dd0000e720UL, 0xfeb024730000cf59UL,
  0xff7d35d90000f125UL, 0xfd8b44ba00008b7fUL, 0xfd3220cd0000b820UL, 0xfd0d21de00002306UL,
  0xff122e530000a491UL, 0xff69093400006c5aUL, 0xfee621b90000a13dUL, 0xfdbf18c7000007d7UL,
  0xff4e258c00007b8aUL, 0xfe0a2a8100003c97UL, 0xfe1017ae00004b56UL, 0xfe6b28c800001214UL,
  0xfce42ea900004e96UL, 0xfe3e21690000b2c6UL, 0xfeec196a00007205UL, 0xfd5e24fd0000ef5fUL,
  0xfe0d216800008bb7UL, 0xfd352c570000ccdeUL, 0xff1a1180000027beUL, 0xfcbb2d8e0000d4c4UL,
  0xfe991fd00000a040UL, 0xfd92182200005ab9UL, 0xfdd717990000b93fUL, 0xfeed165000007657UL,
  0xfff42727000013e8UL, 0xff8225f600008d06UL, 0xfdba2e470000a0c2UL, 0xfd5624e500003e02UL,
  0xfedb20eb00006765UL, 0xff6f1e080000e307UL, 0xffa117f600008cf6UL, 0xffab1c1e0000b274UL,
  0xfdc4201000005232UL, 0xfcbd1b3b00009584UL, 0xfe22169d0000b0c1UL, 0xfe19240d00007e7cUL,
  0xfff32ec100003950UL, 0xfcdb3b7700005453UL, 0xffa82ad400007202UL, 0xfd62308e0000d891UL,
  0x00383bdb00002781UL, 0xfedd335c00005fffUL, 0xfee51c1100000e77UL, 0xfcc71f1700002aceUL,
  0xfd9321f600006edaUL, 0xfe201f7f00004d00UL, 0xfe4620b70000483bUL, 0xfe9320e20000d746UL,
  0xfdae28a800001216UL, 0xfdc4126e0000d96fUL, 0xfe233a2000000777UL, 0xfd6d1dcc00009e30UL,
  0x0080224100001e49UL, 0x080000005c000042UL, 0x5c027c0015000000UL, 0x5c07004300070000UL,
  0x0000002000004000UL, 0x000000005c0c0043UL, 0x008020a110411041UL, 0x0008010028007c00UL,
  0x3432b00028020043UL, 0x280500c300006400UL, 0x0001900000000000UL, 0x0000000000000001UL,
  0x0010000000000024UL, 0x00000006280c0042UL, 0x280d004300000007UL, 0x3434403f00000004UL,
  0x0000000028110043UL, 0x0080208100000000UL, 0x0008018424007c00UL, 0x7043422024020043UL,
  0x240500c300001000UL, 0x0000000000000000UL, 0x0000000000000000UL, 0x0010000000000024UL,
  0x00000006240c0042UL, 0x240d004300000007UL, 0x7043525f00000001UL, 0x0000000024110043UL,
  0x008020c100000008UL, 0x000801002c007c00UL, 0x343314002c020043UL, 0x2c0500c300006400UL,
  0x0001900000000000UL, 0x0000000000000001UL, 0x0010000000000024UL, 0x000000062c0c0042UL,
  0x2c0d004300000007UL, 0x3434403f00000004UL, 0x000000002c110043UL, 0x0080200100000000UL,
  0x0008010014007c00UL, 0x3433780014020043UL, 0x140500c300006400UL, 0x0001900000000000UL,
  0x0000000000000001UL, 0x0010000000000024UL, 0x00000006140c0042UL, 0x140d004300000007UL,
  0x3434403f00000004UL, 0x0000000014110043UL, 0x0080204100000000UL, 0x000801001c007c00UL,
  0x3433dc001c020043UL, 0x1c0500c300006400UL, 0x0001900000000000UL, 0x0000000000000001UL,
  0x0010000000000024UL, 0x000000061c0c0042UL, 0x1c0d004300000007UL, 0x3434403f00000004UL,
  0x000000001c110043UL, 0x0080202100000000UL, 0x0008000818007c00UL, 0x3428900018020123UL,
  0x0040001000280028UL, 0x0000001000000a00UL, 0x0001900000000004UL, 0x0010000000000024UL,
  0x00000006180c0042UL, 0x180d004300000007UL, 0x342a203f00000004UL, 0x0000000018110043UL,
  0x0080210100000000UL, 0x0008000834007c00UL, 0x342e000034020123UL, 0x0040001000280028UL,
  0x0000001000000a00UL, 0x0001900000000004UL, 0x0010000000000024UL, 0x00000006340c0042UL,
  0x340d004300000007UL, 0x342f903f00000004UL, 0x0000000034110043UL, 0x10037c0000000000UL,
  0x100a7c000000002bUL, 0x100c00a300000025UL, 0x0000000900000005UL, 0x0000000b0000001bUL,
  0x101200c300000009UL, 0x000000090000000dUL, 0x0000000100000017UL, 0x0000001900000009UL,
  0x0000002b101e7c00UL, 0x0000001510247c00UL, 0x0000000110007c00UL, 0x3400200118002001UL,
  0x001000213c007c00UL, 0x0010003540007c00UL, 0x0010002144007c00UL, 0x0010002148007c00UL,
  0x680020015c002001UL, 0x1c00200114002001UL, 0x2800200124002001UL, 0x18007fe42c002001UL,
  0x0000000000000064UL, 0x0000006434007fe4UL, 0x10007c0000000000UL, 0x1000042400000002UL,
  0x0000000000000064UL, 0x4000000010007c00UL, 0x0000006410007bc4UL, 0x10037c0000000000UL,
  0x100a7c0000000000UL, 0x100c00a300000000UL, 0x0000000000000000UL, 0x0000000000000000UL,
  0x101200c300000000UL, 0x0000000000000000UL, 0x0000000000000000UL, 0x0000000000000000UL,
  0x00000000101e7c00UL, 0x0000000010247c00UL, 0x0000000218007c00UL, 0x0000006418000424UL,
  0x18007c0000000000UL, 0x18007bc440000000UL, 0x0000000000000064UL, 0x34007c0000800021UL,
  0x3400042400000002UL, 0x0000000000000064UL, 0x4000000034007c00UL, 0x0000006434007bc4UL,
  0x0080010100000000UL, 0x000000023c007c00UL, 0x000000643c000424UL, 0x3c007c0000000000UL,
  0x3c007bc440000000UL, 0x0000000000000064UL, 0x40007c0000800141UL, 0x4000042400000002UL,
  0x0000000000000064UL, 0x4000000040007c00UL, 0x0000006440007bc4UL, 0x0080016100000000UL,
  0x0000000244007c00UL, 0x0000006444000424UL, 0x44007c0000000000UL, 0x44007bc440000000UL,
  0x0000000000000064UL, 0x48007c0000800181UL, 0x4800042400000002UL, 0x0000000000000064UL,
  0x4000000048007c00UL, 0x0000006448007bc4UL, 0x008001a100000000UL, 0x080000025c007c00UL,
  0x000000645c000424UL, 0x5c007c0000000000UL, 0x5c007bc448000000UL, 0x0000000000000064UL,
  0x68007c0000800241UL, 0x6800042408000002UL, 0x0000000000000064UL, 0x4800000068007c00UL,
  0x0000006468007bc4UL, 0x008002a100000000UL, 0x0000000214007c00UL, 0x0000006414000424UL,
  0x14007c0000000000UL, 0x14007bc440000000UL, 0x0000000000000064UL, 0x1c007c0000800001UL,
  0x1c00042400000002UL, 0x0000000000000064UL, 0x400000001c007c00UL, 0x000000641c007bc4UL,
  0x0080004100000000UL, 0x0000000224007c00UL, 0x0000006424000424UL, 0x24007c0000000000UL,
  0x24007bc440000000UL, 0x0000000000000064UL, 0x28007c0000800081UL, 0x2800042400000002UL,
  0x0000000000000064UL, 0x4000000028007c00UL, 0x0000006428007bc4UL, 0x008000a100000000UL,
  0x000000022c007c00UL, 0x000000642c000424UL, 0x2c007c0000000000UL, 0x2c007bc440000000UL,
  0x0000000000000064UL, 0x000003bd008000c1UL, 0x3c007c0000802141UL, 0x3c0200e320100034UL,
  0x0000220004040303UL, 0x002800a010634303UL, 0x00270000009f0000UL, 0x3c0a7c0000000001UL,
  0x3c0d7c0001000400UL, 0x0080228100000000UL, 0x0800000064000042UL, 0x64020123156000fcUL,
  0x0000000000088000UL, 0x0000063f00000003UL, 0x00000000000063ffUL, 0x070403fd00000000UL,
  0x640c004300000001UL, 0x2042204200000000UL, 0x00000001640b7c00UL, 0xff021b8c65001003UL,
  0xff0011b500009520UL, 0xfefd0d6b00002a0eUL, 0xffc7145a00004127UL, 0xff0117820000d0ffUL,
  0xff19118c000051efUL, 0x00c414e4000066bbUL, 0xfed00e500000fca4UL, 0x00260eca00009f29UL,
  0xff3144a800008b0cUL, 0xff0827500000e25eUL, 0x000b0d9000000b16UL, 0xfed10bad0000b4bcUL,
  0xff961b840000e531UL, 0xff1d0d06000067a4UL, 0xffbb0c600000ab43UL, 0xff000f500000b458UL,
  0xfde61daf00002833UL, 0xffe510480000968bUL, 0xff900c7f00001d88UL, 0xff0b0e260000b085UL,
  0xff630f78000037ebUL, 0xff0414a20000b1ffUL, 0xff1421210000078eUL, 0xfef90da100004cd8UL,
  0xff040d9e0000362cUL, 0xfeff18cf0000a0c6UL, 0xff9f09150000ce62UL, 0xff20165f00003694UL,
  0xff0e115900003971UL, 0xff6d19610000d8fdUL, 0xff0213a80000afdfUL, 0xfef913ff0000b9bbUL,
  0xfeff1cb7000004e4UL, 0x001f0ea00000825fUL, 0xfefe1cf30000a1e8UL, 0xffd10f140000b6b8UL,
  0xffa70c3a00003ee0UL, 0xff0511fe00006093UL, 0xfee30f9600004319UL, 0x003013ec00004055UL,
  0xff3e0f920000dd33UL, 0x001b0f830000ab0eUL, 0xff6b0efa0000d7d2UL, 0xff770a2e0000cb57UL,
  0xfeee136a0000654cUL, 0xffb412c300000ddeUL, 0xff060cf20000ccadUL, 0xfef70d460000571eUL,
  0xff780f220000aa30UL, 0xffbd12b5000047c4UL, 0xff3b0daa00004949UL, 0xffaa0f710000e474UL,
  0xfe98109b000060fdUL, 0xfeef14c40000e4a1UL, 0xfeff151b000006edUL, 0xff120f470000fab9UL,
  0xff9a0ec30000503fUL, 0xff0318a200002fd8UL, 0xff0110f6000029dbUL, 0xff42186500002051UL,
  0xff05142d0000312eUL, 0xfefe0b9000000617UL, 0xff361114000042e4UL, 0x0080226100005a1fUL,
  0x0800000060000042UL, 0x60027c0015000000UL, 0x6007004300070000UL, 0x0000002000004000UL,
  0x00000000600c0043UL, 0x008020a110411041UL, 0x0088020028007c00UL, 0x342e000028020123UL,
  0x0040000200280028UL, 0x0000000000000a00UL, 0x0000000400000001UL, 0x0010000000000024UL,
  0x00000006280c0042UL, 0x280d004300000007UL, 0x342f903f00000010UL, 0x0000000028110043UL,
  0x0080206100000000UL, 0x0008018420007c00UL, 0x7044e22020020043UL, 0x200500c300000900UL,
  0x0000000000000000UL, 0x0000000000000000UL, 0x0010000000000024UL, 0x00000006200c0042UL,
  0x200d004300000007UL, 0x7044eb5f00000001UL, 0x0000000020110043UL, 0x0080208100000008UL,
  0x0008000824007c00UL, 0x3430580024020123UL, 0x0040000400140014UL, 0x0000000400000500UL,
  0x0000640000000010UL, 0x0010000000000024UL, 0x00000006240c0042UL, 0x240d004300000007UL,
  0x3430bc3f00000010UL, 0x0000000024110043UL, 0x10067c0000000000UL, 0x100c004300000027UL,
  0x000000070000000bUL, 0x0000002910207c00UL, 0x0000001510227c00UL, 0x0000000110007c00UL,
  0x3c007c0024002001UL, 0x6000200120100035UL, 0x2000200164002001UL, 0x24007fe428002001UL,
  0x0000000000000064UL, 0x0000000210007c00UL, 0x0000006410000424UL, 0x10007c0000000000UL,
  0x10007bc440000000UL, 0x0000000000000064UL, 0x0000000010067c00UL, 0x00000000100c0043UL,
  0x10207c0000000000UL, 0x10227c0000000000UL, 0x24007c0000000000UL, 0x2400042400000002UL,
  0x0000000000000064UL, 0x4000000024007c00UL, 0x0000006424007bc4UL, 0x0080008100000000UL,
  0x000000023c007c00UL, 0x000000643c000424UL, 0x3c007c0000000000UL, 0x3c007bc440000000UL,
  0x0000000000000064UL, 0x60007c0000800141UL, 0x6000042408000002UL, 0x0000000000000064UL,
  0x4800000060007c00UL, 0x0000006460007bc4UL, 0x0080026100000000UL, 0x0800000264007c00UL,
  0x0000006464000424UL, 0x64007c0000000000UL, 0x64007bc448000000UL, 0x0000000000000064UL,
  0x20007c0000800281UL, 0x2000042400000002UL, 0x0000000000000064UL, 0x4000000020007c00UL,
  0x0000006420007bc4UL, 0x0080006100000000UL, 0x0000000228007c00UL, 0x0000006428000424UL,
  0x28007c0000000000UL, 0x28007bc440000000UL, 0x0000000000000064UL, 0x000003dd008000a1UL,
  0x40007c0000802161UL, 0x400200e300100034UL, 0x0000110010100101UL, 0x0014014010774004UL,
  0x00130000013f0000UL, 0x400a7c00000f0040UL, 0x400d7c0000000000UL, 0x0080218100000000UL,
  0x0010002044007c00UL, 0x10100101440200e3UL, 0x1077400000001100UL, 0x013f000000140140UL,
  0x001f104000130000UL, 0x00000000440a7c00UL, 0x00000000440d7c00UL, 0x48007c00008021a1UL,
  0x480200e300100020UL, 0x0000110010100101UL, 0x0014014010774000UL, 0x00130000013f0000UL,
  0x480a7c00002f2040UL, 0x480d7c0000000000UL, 0x0080214100000000UL, 0x001000203c007c00UL,
  0x101001013c0200e3UL, 0x1063440000001100UL, 0x013f000000140140UL, 0x003f304000130000UL,
  0x000000003c0a7c00UL, 0x000000003c0d7c00UL, 0x5c00004200802241UL, 0x156000fc08000000UL,
  0x000900005c020123UL, 0x0000000f00000000UL, 0x0000c7ff000018ffUL, 0x0000000000000000UL,
  0x00000001060403f1UL, 0x000000005c0c0043UL, 0x5c0b7c0020422042UL, 0x5d00200300000001UL,
  0x00008323ff0f55c2UL, 0x00007b7eff2846b7UL, 0x0000ccbd00cc4c03UL, 0x0000a0dcfc8138d4UL,
  0x0000dc70ff3a6728UL, 0x0000b47ffc90313fUL, 0x00007e52fe055ef1UL, 0x00004a2cfdeb59f5UL,
  0x00006f52fe2c6963UL, 0x00001550feca3aa9UL, 0x000086ddfe1c559aUL, 0x000039f1fce13ae7UL,
  0x0000ca5ffdec3b29UL, 0x0000e607fce37163UL, 0x000008a1fef15121UL, 0x0000920bfe7e415cUL,
  0x0000b2b4fd85337fUL, 0x00009bf2ff943ba4UL, 0x0000fce2ffb54644UL, 0x0000f6affc26411fUL,
  0x00005e20fdf840b9UL, 0x00008ca8fd9d571dUL, 0x0000cfb4fd4c605fUL, 0x00001e62ffb7458fUL,
  0x00000d45ff122c39UL, 0x0000961efe2d336dUL, 0x00005e7efca74335UL, 0x000057b0ff065f0dUL,
  0x0000de4ffdc84db5UL, 0x00009dbbfd533235UL, 0x00001982fd453ddeUL, 0x0000ad6bfe74368aUL,
  0x00006332fcd13b2bUL, 0x000065d0fd713a75UL, 0x000034f0fd4b6026UL, 0x000030b4fe0b46a0UL,
  0x000072b8fd046352UL, 0x00006757fd954663UL, 0x000039ea00e847f1UL, 0x0000b360fd1b2ee5UL,
